#include "magic_wand_model_data.h"

// We need to keep the data array aligned on some architectures.
#ifdef __has_attribute
#define HAVE_ATTRIBUTE(x) __has_attribute(x)
#else
#define HAVE_ATTRIBUTE(x) 0
#endif
#if HAVE_ATTRIBUTE(aligned) || (defined(__GNUC__) && !defined(__clang__))
#define DATA_ALIGN_ATTRIBUTE __attribute__((aligned(4)))
#else
#define DATA_ALIGN_ATTRIBUTE
#endif

const unsigned char g_magic_wand_model_data[] DATA_ALIGN_ATTRIBUTE = {
  0x1c, 0x00, 0x00, 0x00, 0x54, 0x46, 0x4c, 0x33, 0x14, 0x00, 0x20, 0x00,
  0x04, 0x00, 0x08, 0x00, 0x0c, 0x00, 0x10, 0x00, 0x14, 0x00, 0x00, 0x00,
  0x18, 0x00, 0x1c, 0x00, 0x14, 0x00, 0x00, 0x00, 0x03, 0x00, 0x00, 0x00,
  0x18, 0x00, 0x00, 0x00, 0x2c, 0x00, 0x00, 0x00, 0xd8, 0x00, 0x00, 0x00,
  0x2c, 0x00, 0x00, 0x00, 0x80, 0x00, 0x00, 0x00, 0x78, 0x00, 0x00, 0x00,
  0x05, 0x00, 0x00, 0x00, 0x28, 0x07, 0x00, 0x00, 0x44, 0x06, 0x00, 0x00,
  0xbc, 0x03, 0x00, 0x00, 0xf8, 0x02, 0x00, 0x00, 0xac, 0x01, 0x00, 0x00,
  0x01, 0x00, 0x00, 0x00, 0xd0, 0x00, 0x00, 0x00, 0x14, 0x00, 0x00, 0x00,
  0x20, 0x33, 0x00, 0x00, 0x1c, 0x33, 0x00, 0x00, 0x14, 0x32, 0x00, 0x00,
  0x60, 0x31, 0x00, 0x00, 0xb8, 0x30, 0x00, 0x00, 0x3c, 0x30, 0x00, 0x00,
  0xd0, 0x2f, 0x00, 0x00, 0x80, 0x13, 0x00, 0x00, 0xec, 0x11, 0x00, 0x00,
  0x10, 0x10, 0x00, 0x00, 0xb4, 0x07, 0x00, 0x00, 0xf4, 0x32, 0x00, 0x00,
  0xf0, 0x32, 0x00, 0x00, 0xec, 0x32, 0x00, 0x00, 0xe8, 0x32, 0x00, 0x00,
  0xe4, 0x32, 0x00, 0x00, 0xe0, 0x32, 0x00, 0x00, 0xdc, 0x32, 0x00, 0x00,
  0xd8, 0x32, 0x00, 0x00, 0x3c, 0x00, 0x00, 0x00, 0x00, 0x00, 0x00, 0x00,
  0x01, 0x00, 0x00, 0x00, 0x0c, 0x00, 0x00, 0x00, 0x08, 0x00, 0x0c, 0x00,
  0x04, 0x00, 0x08, 0x00, 0x08, 0x00, 0x00, 0x00, 0x08, 0x00, 0x00, 0x00,
  0x13, 0x00, 0x00, 0x00, 0x13, 0x00, 0x00, 0x00, 0x6d, 0x69, 0x6e, 0x5f,
  0x72, 0x75, 0x6e, 0x74, 0x69, 0x6d, 0x65, 0x5f, 0x76, 0x65, 0x72, 0x73,
  0x69, 0x6f, 0x6e, 0x00, 0x72, 0xce, 0xff, 0xff, 0x04, 0x00, 0x00, 0x00,
  0x10, 0x00, 0x00, 0x00, 0x31, 0x2e, 0x35, 0x2e, 0x30, 0x00, 0x00, 0x00,
  0x00, 0x00, 0x00, 0x00, 0x00, 0x00, 0x00, 0x00, 0x0f, 0x00, 0x00, 0x00,
  0x4d, 0x4c, 0x49, 0x52, 0x20, 0x43, 0x6f, 0x6e, 0x76, 0x65, 0x72, 0x74,
  0x65, 0x64, 0x2e, 0x00, 0x00, 0x00, 0x0e, 0x00, 0x18, 0x00, 0x04, 0x00,
  0x08, 0x00, 0x0c, 0x00, 0x10, 0x00, 0x14, 0x00, 0x0e, 0x00, 0x00, 0x00,
  0x14, 0x00, 0x00, 0x00, 0x5c, 0x00, 0x00, 0x00, 0x60, 0x00, 0x00, 0x00,
  0x64, 0x00, 0x00, 0x00, 0x84, 0x00, 0x00, 0x00, 0x12, 0x00, 0x00, 0x00,
  0xe0, 0x31, 0x00, 0x00, 0x70, 0x31, 0x00, 0x00, 0xcc, 0x30, 0x00, 0x00,
  0x24, 0x30, 0x00, 0x00, 0x7c, 0x2f, 0x00, 0x00, 0x14, 0x2f, 0x00, 0x00,
  0xac, 0x2e, 0x00, 0x00, 0x58, 0x12, 0x00, 0x00, 0xbc, 0x10, 0x00, 0x00,
  0xe0, 0x0e, 0x00, 0x00, 0x0c, 0x06, 0x00, 0x00, 0x28, 0x05, 0x00, 0x00,
  0xe8, 0x03, 0x00, 0x00, 0x3c, 0x03, 0x00, 0x00, 0x98, 0x02, 0x00, 0x00,
  0xd4, 0x01, 0x00, 0x00, 0x10, 0x01, 0x00, 0x00, 0x84, 0x00, 0x00, 0x00,
  0x01, 0x00, 0x00, 0x00, 0x00, 0x00, 0x00, 0x00, 0x01, 0x00, 0x00, 0x00,
  0x11, 0x00, 0x00, 0x00, 0x08, 0x00, 0x00, 0x00, 0x74, 0x05, 0x00, 0x00,
  0x94, 0x04, 0x00, 0x00, 0x78, 0x03, 0x00, 0x00, 0xbc, 0x02, 0x00, 0x00,
  0x30, 0x02, 0x00, 0x00, 0x50, 0x01, 0x00, 0x00, 0xa8, 0x00, 0x00, 0x00,
  0x10, 0x00, 0x00, 0x00, 0x04, 0x00, 0x00, 0x00, 0x6d, 0x61, 0x69, 0x6e,
  0x00, 0x00, 0x00, 0x00, 0x7a, 0xff, 0xff, 0xff, 0x00, 0x00, 0x00, 0x09,
  0x04, 0x00, 0x00, 0x00, 0x1c, 0x00, 0x00, 0x00, 0x10, 0x00, 0x00, 0x00,
  0x04, 0x00, 0x00, 0x00, 0x6e, 0xcf, 0xff, 0xff, 0x00, 0x00, 0x80, 0x3f,
  0x01, 0x00, 0x00, 0x00, 0x11, 0x00, 0x00, 0x00, 0x01, 0x00, 0x00, 0x00,
  0x10, 0x00, 0x00, 0x00, 0xa0, 0xfa, 0xff, 0xff, 0x19, 0x00, 0x00, 0x00,
  0x00, 0x00, 0x00, 0x19, 0x01, 0x00, 0x00, 0x00, 0xfc, 0xce, 0xff, 0xff,
  0x14, 0x00, 0x00, 0x00, 0x12, 0x00, 0x00, 0x00, 0x18, 0x00, 0x00, 0x00,
  0x30, 0x00, 0x00, 0x00, 0x20, 0x00, 0x00, 0x00, 0x02, 0x00, 0x00, 0x00,
  0x01, 0x00, 0x00, 0x00, 0x05, 0x00, 0x00, 0x00, 0x08, 0x00, 0x00, 0x00,
  0x49, 0x64, 0x65, 0x6e, 0x74, 0x69, 0x74, 0x79, 0x00, 0x00, 0x00, 0x00,
  0x02, 0x00, 0x00, 0x00, 0xff, 0xff, 0xff, 0xff, 0x05, 0x00, 0x00, 0x00,
  0xe0, 0xcf, 0xff, 0xff, 0x00, 0x00, 0x0e, 0x00, 0x18, 0x00, 0x08, 0x00,
  0x0c, 0x00, 0x10, 0x00, 0x07, 0x00, 0x14, 0x00, 0x0e, 0x00, 0x00, 0x00,
  0x00, 0x00, 0x00, 0x08, 0x03, 0x00, 0x00, 0x00, 0x18, 0x00, 0x00, 0x00,
  0x0c, 0x00, 0x00, 0x00, 0x04, 0x00, 0x00, 0x00, 0xfc, 0xce, 0xff, 0xff,
  0x01, 0x00, 0x00, 0x00, 0x10, 0x00, 0x00, 0x00, 0x03, 0x00, 0x00, 0x00,
  0x0f, 0x00, 0x00, 0x00, 0x07, 0x00, 0x00, 0x00, 0x04, 0x00, 0x00, 0x00,
  0x84, 0xcf, 0xff, 0xff, 0x14, 0x00, 0x00, 0x00, 0x11, 0x00, 0x00, 0x00,
  0x18, 0x00, 0x00, 0x00, 0x5c, 0x00, 0x00, 0x00, 0x4c, 0x00, 0x00, 0x00,
  0x02, 0x00, 0x00, 0x00, 0x01, 0x00, 0x00, 0x00, 0x05, 0x00, 0x00, 0x00,
  0x34, 0x00, 0x00, 0x00, 0x73, 0x65, 0x71, 0x75, 0x65, 0x6e, 0x74, 0x69,
  0x61, 0x6c, 0x2f, 0x64, 0x65, 0x6e, 0x73, 0x65, 0x5f, 0x31, 0x2f, 0x4d,
  0x61, 0x74, 0x4d, 0x75, 0x6c, 0x3b, 0x73, 0x65, 0x71, 0x75, 0x65, 0x6e,
  0x74, 0x69, 0x61, 0x6c, 0x2f, 0x64, 0x65, 0x6e, 0x73, 0x65, 0x5f, 0x31,
  0x2f, 0x42, 0x69, 0x61, 0x73, 0x41, 0x64, 0x64, 0x00, 0x00, 0x00, 0x00,
  0x02, 0x00, 0x00, 0x00, 0xff, 0xff, 0xff, 0xff, 0x05, 0x00, 0x00, 0x00,
  0x84, 0xcf, 0xff, 0xff, 0xda, 0xfc, 0xff, 0xff, 0x00, 0x00, 0x00, 0x08,
  0x03, 0x00, 0x00, 0x00, 0x24, 0x00, 0x00, 0x00, 0x18, 0x00, 0x00, 0x00,
  0x0c, 0x00, 0x00, 0x00, 0x00, 0x00, 0x06, 0x00, 0x08, 0x00, 0x07, 0x00,
  0x06, 0x00, 0x00, 0x00, 0x00, 0x00, 0x00, 0x01, 0x01, 0x00, 0x00, 0x00,
  0x0f, 0x00, 0x00, 0x00, 0x03, 0x00, 0x00, 0x00, 0x0e, 0x00, 0x00, 0x00,
  0x06, 0x00, 0x00, 0x00, 0x03, 0x00, 0x00, 0x00, 0xe8, 0xfb, 0xff, 0xff,
  0x09, 0x00, 0x00, 0x00, 0x00, 0x00, 0x00, 0x09, 0x01, 0x00, 0x00, 0x00,
  0x44, 0xd0, 0xff, 0xff, 0x14, 0x00, 0x00, 0x00, 0x10, 0x00, 0x00, 0x00,
  0x18, 0x00, 0x00, 0x00, 0x6c, 0x00, 0x00, 0x00, 0x5c, 0x00, 0x00, 0x00,
  0x02, 0x00, 0x00, 0x00, 0x01, 0x00, 0x00, 0x00, 0x10, 0x00, 0x00, 0x00,
  0x46, 0x00, 0x00, 0x00, 0x73, 0x65, 0x71, 0x75, 0x65, 0x6e, 0x74, 0x69,
  0x61, 0x6c, 0x2f, 0x64, 0x65, 0x6e, 0x73, 0x65, 0x2f, 0x4d, 0x61, 0x74,
  0x4d, 0x75, 0x6c, 0x3b, 0x73, 0x65, 0x71, 0x75, 0x65, 0x6e, 0x74, 0x69,
  0x61, 0x6c, 0x2f, 0x64, 0x65, 0x6e, 0x73, 0x65, 0x2f, 0x52, 0x65, 0x6c,
  0x75, 0x3b, 0x73, 0x65, 0x71, 0x75, 0x65, 0x6e, 0x74, 0x69, 0x61, 0x6c,
  0x2f, 0x64, 0x65, 0x6e, 0x73, 0x65, 0x2f, 0x42, 0x69, 0x61, 0x73, 0x41,
  0x64, 0x64, 0x00, 0x00, 0x02, 0x00, 0x00, 0x00, 0xff, 0xff, 0xff, 0xff,
  0x10, 0x00, 0x00, 0x00, 0x64, 0xd1, 0xff, 0xff, 0x00, 0x00, 0x0a, 0x00,
  0x10, 0x00, 0x04, 0x00, 0x08, 0x00, 0x0c, 0x00, 0x0a, 0x00, 0x00, 0x00,
  0x02, 0x00, 0x00, 0x00, 0x10, 0x00, 0x00, 0x00, 0x04, 0x00, 0x00, 0x00,
  0x01, 0x00, 0x00, 0x00, 0x0e, 0x00, 0x00, 0x00, 0x02, 0x00, 0x00, 0x00,
  0x0d, 0x00, 0x00, 0x00, 0x05, 0x00, 0x00, 0x00, 0xa8, 0xfc, 0xff, 0xff,
  0x16, 0x00, 0x00, 0x00, 0x00, 0x00, 0x00, 0x16, 0x01, 0x00, 0x00, 0x00,
  0x04, 0xd1, 0xff, 0xff, 0x14, 0x00, 0x00, 0x00, 0x0f, 0x00, 0x00, 0x00,
  0x18, 0x00, 0x00, 0x00, 0x40, 0x00, 0x00, 0x00, 0x30, 0x00, 0x00, 0x00,
  0x02, 0x00, 0x00, 0x00, 0x01, 0x00, 0x00, 0x00, 0x70, 0x00, 0x00, 0x00,
  0x1a, 0x00, 0x00, 0x00, 0x73, 0x65, 0x71, 0x75, 0x65, 0x6e, 0x74, 0x69,
  0x61, 0x6c, 0x2f, 0x66, 0x6c, 0x61, 0x74, 0x74, 0x65, 0x6e, 0x2f, 0x52,
  0x65, 0x73, 0x68, 0x61, 0x70, 0x65, 0x00, 0x00, 0x02, 0x00, 0x00, 0x00,
  0xff, 0xff, 0xff, 0xff, 0x70, 0x00, 0x00, 0x00, 0xe8, 0xd0, 0xff, 0xff,
  0x3e, 0xfe, 0xff, 0xff, 0x00, 0x00, 0x00, 0x05, 0x01, 0x00, 0x00, 0x00,
  0x38, 0x00, 0x00, 0x00, 0x2c, 0x00, 0x00, 0x00, 0x14, 0x00, 0x00, 0x00,
  0x00, 0x00, 0x0e, 0x00, 0x14, 0x00, 0x00, 0x00, 0x10, 0x00, 0x0c, 0x00,
  0x08, 0x00, 0x04, 0x00, 0x0e, 0x00, 0x00, 0x00, 0x03, 0x00, 0x00, 0x00,
  0x01, 0x00, 0x00, 0x00, 0x03, 0x00, 0x00, 0x00, 0x01, 0x00, 0x00, 0x00,
  0x01, 0x00, 0x00, 0x00, 0x0d, 0x00, 0x00, 0x00, 0x01, 0x00, 0x00, 0x00,
  0x0c, 0x00, 0x00, 0x00, 0xa4, 0xd1, 0xff, 0xff, 0x14, 0x00, 0x00, 0x00,
  0x0e, 0x00, 0x00, 0x00, 0x20, 0x00, 0x00, 0x00, 0x58, 0x00, 0x00, 0x00,
  0x40, 0x00, 0x00, 0x00, 0x04, 0x00, 0x00, 0x00, 0x01, 0x00, 0x00, 0x00,
  0x07, 0x00, 0x00, 0x00, 0x01, 0x00, 0x00, 0x00, 0x10, 0x00, 0x00, 0x00,
  0x22, 0x00, 0x00, 0x00, 0x73, 0x65, 0x71, 0x75, 0x65, 0x6e, 0x74, 0x69,
  0x61, 0x6c, 0x2f, 0x6d, 0x61, 0x78, 0x5f, 0x70, 0x6f, 0x6f, 0x6c, 0x69,
  0x6e, 0x67, 0x32, 0x64, 0x5f, 0x31, 0x2f, 0x4d, 0x61, 0x78, 0x50, 0x6f,
  0x6f, 0x6c, 0x00, 0x00, 0x04, 0x00, 0x00, 0x00, 0xff, 0xff, 0xff, 0xff,
  0x07, 0x00, 0x00, 0x00, 0x01, 0x00, 0x00, 0x00, 0x10, 0x00, 0x00, 0x00,
  0xa0, 0xd1, 0xff, 0xff, 0x1a, 0xfe, 0xff, 0xff, 0x00, 0x00, 0x00, 0x01,
  0x24, 0x00, 0x00, 0x00, 0x18, 0x00, 0x00, 0x00, 0x04, 0x00, 0x00, 0x00,
  0x0c, 0xfe, 0xff, 0xff, 0x01, 0x00, 0x00, 0x00, 0x01, 0x00, 0x00, 0x00,
  0x00, 0x00, 0x00, 0x01, 0x01, 0x00, 0x00, 0x00, 0x0c, 0x00, 0x00, 0x00,
  0x03, 0x00, 0x00, 0x00, 0x0b, 0x00, 0x00, 0x00, 0x09, 0x00, 0x00, 0x00,
  0x02, 0x00, 0x00, 0x00, 0x4c, 0xd2, 0xff, 0xff, 0x14, 0x00, 0x00, 0x00,
  0x0d, 0x00, 0x00, 0x00, 0x20, 0x00, 0x00, 0x00, 0xb8, 0x00, 0x00, 0x00,
  0xa0, 0x00, 0x00, 0x00, 0x04, 0x00, 0x00, 0x00, 0x01, 0x00, 0x00, 0x00,
  0x15, 0x00, 0x00, 0x00, 0x01, 0x00, 0x00, 0x00, 0x10, 0x00, 0x00, 0x00,
  0x83, 0x00, 0x00, 0x00, 0x73, 0x65, 0x71, 0x75, 0x65, 0x6e, 0x74, 0x69,
  0x61, 0x6c, 0x2f, 0x63, 0x6f, 0x6e, 0x76, 0x32, 0x64, 0x5f, 0x31, 0x2f,
  0x52, 0x65, 0x6c, 0x75, 0x3b, 0x73, 0x65, 0x71, 0x75, 0x65, 0x6e, 0x74,
  0x69, 0x61, 0x6c, 0x2f, 0x63, 0x6f, 0x6e, 0x76, 0x32, 0x64, 0x5f, 0x31,
  0x2f, 0x42, 0x69, 0x61, 0x73, 0x41, 0x64, 0x64, 0x3b, 0x73, 0x65, 0x71,
  0x75, 0x65, 0x6e, 0x74, 0x69, 0x61, 0x6c, 0x2f, 0x63, 0x6f, 0x6e, 0x76,
  0x32, 0x64, 0x5f, 0x31, 0x2f, 0x43, 0x6f, 0x6e, 0x76, 0x32, 0x44, 0x3b,
  0x73, 0x65, 0x71, 0x75, 0x65, 0x6e, 0x74, 0x69, 0x61, 0x6c, 0x2f, 0x63,
  0x6f, 0x6e, 0x76, 0x32, 0x64, 0x5f, 0x31, 0x2f, 0x42, 0x69, 0x61, 0x73,
  0x41, 0x64, 0x64, 0x2f, 0x52, 0x65, 0x61, 0x64, 0x56, 0x61, 0x72, 0x69,
  0x61, 0x62, 0x6c, 0x65, 0x4f, 0x70, 0x2f, 0x72, 0x65, 0x73, 0x6f, 0x75,
  0x72, 0x63, 0x65, 0x00, 0x04, 0x00, 0x00, 0x00, 0xff, 0xff, 0xff, 0xff,
  0x15, 0x00, 0x00, 0x00, 0x01, 0x00, 0x00, 0x00, 0x10, 0x00, 0x00, 0x00,
  0xb8, 0xd3, 0xff, 0xff, 0x00, 0x00, 0x0e, 0x00, 0x1a, 0x00, 0x08, 0x00,
  0x0c, 0x00, 0x10, 0x00, 0x07, 0x00, 0x14, 0x00, 0x0e, 0x00, 0x00, 0x00,
  0x00, 0x00, 0x00, 0x05, 0x01, 0x00, 0x00, 0x00, 0x3c, 0x00, 0x00, 0x00,
  0x30, 0x00, 0x00, 0x00, 0x14, 0x00, 0x00, 0x00, 0x00, 0x00, 0x0e, 0x00,
  0x18, 0x00, 0x17, 0x00, 0x10, 0x00, 0x0c, 0x00, 0x08, 0x00, 0x04, 0x00,
  0x0e, 0x00, 0x00, 0x00, 0x03, 0x00, 0x00, 0x00, 0x03, 0x00, 0x00, 0x00,
  0x03, 0x00, 0x00, 0x00, 0x03, 0x00, 0x00, 0x00, 0x00, 0x00, 0x00, 0x01,
  0x01, 0x00, 0x00, 0x00, 0x0b, 0x00, 0x00, 0x00, 0x01, 0x00, 0x00, 0x00,
  0x0a, 0x00, 0x00, 0x00, 0x2c, 0xff, 0xff, 0xff, 0x11, 0x00, 0x00, 0x00,
  0x00, 0x00, 0x00, 0x11, 0x01, 0x00, 0x00, 0x00, 0x88, 0xd3, 0xff, 0xff,
  0x14, 0x00, 0x00, 0x00, 0x0c, 0x00, 0x00, 0x00, 0x20, 0x00, 0x00, 0x00,
  0x58, 0x00, 0x00, 0x00, 0x40, 0x00, 0x00, 0x00, 0x04, 0x00, 0x00, 0x00,
  0x01, 0x00, 0x00, 0x00, 0x15, 0x00, 0x00, 0x00, 0x01, 0x00, 0x00, 0x00,
  0x08, 0x00, 0x00, 0x00, 0x20, 0x00, 0x00, 0x00, 0x73, 0x65, 0x71, 0x75,
  0x65, 0x6e, 0x74, 0x69, 0x61, 0x6c, 0x2f, 0x6d, 0x61, 0x78, 0x5f, 0x70,
  0x6f, 0x6f, 0x6c, 0x69, 0x6e, 0x67, 0x32, 0x64, 0x2f, 0x4d, 0x61, 0x78,
  0x50, 0x6f, 0x6f, 0x6c, 0x00, 0x00, 0x00, 0x00, 0x04, 0x00, 0x00, 0x00,
  0xff, 0xff, 0xff, 0xff, 0x15, 0x00, 0x00, 0x00, 0x01, 0x00, 0x00, 0x00,
  0x08, 0x00, 0x00, 0x00, 0x94, 0xd4, 0xff, 0xff, 0x00, 0x00, 0x0e, 0x00,
  0x14, 0x00, 0x00, 0x00, 0x08, 0x00, 0x0c, 0x00, 0x07, 0x00, 0x10, 0x00,
  0x0e, 0x00, 0x00, 0x00, 0x00, 0x00, 0x00, 0x01, 0x30, 0x00, 0x00, 0x00,
  0x24, 0x00, 0x00, 0x00, 0x10, 0x00, 0x00, 0x00, 0x0c, 0x00, 0x10, 0x00,
  0x00, 0x00, 0x04, 0x00, 0x08, 0x00, 0x0f, 0x00, 0x0c, 0x00, 0x00, 0x00,
  0x01, 0x00, 0x00, 0x00, 0x01, 0x00, 0x00, 0x00, 0x00, 0x00, 0x00, 0x01,
  0x01, 0x00, 0x00, 0x00, 0x0a, 0x00, 0x00, 0x00, 0x03, 0x00, 0x00, 0x00,
  0x00, 0x00, 0x00, 0x00, 0x08, 0x00, 0x00, 0x00, 0x01, 0x00, 0x00, 0x00,
  0x0c, 0x00, 0x10, 0x00, 0x0b, 0x00, 0x00, 0x00, 0x0c, 0x00, 0x04, 0x00,
  0x0c, 0x00, 0x00, 0x00, 0x03, 0x00, 0x00, 0x00, 0x00, 0x00, 0x00, 0x03,
  0x01, 0x00, 0x00, 0x00, 0x68, 0xd4, 0xff, 0xff, 0x14, 0x00, 0x00, 0x00,
  0x0b, 0x00, 0x00, 0x00, 0x20, 0x00, 0x00, 0x00, 0xb0, 0x00, 0x00, 0x00,
  0x98, 0x00, 0x00, 0x00, 0x04, 0x00, 0x00, 0x00, 0x01, 0x00, 0x00, 0x00,
  0x40, 0x00, 0x00, 0x00, 0x03, 0x00, 0x00, 0x00, 0x08, 0x00, 0x00, 0x00,
  0x7b, 0x00, 0x00, 0x00, 0x73, 0x65, 0x71, 0x75, 0x65, 0x6e, 0x74, 0x69,
  0x61, 0x6c, 0x2f, 0x63, 0x6f, 0x6e, 0x76, 0x32, 0x64, 0x2f, 0x52, 0x65,
  0x6c, 0x75, 0x3b, 0x73, 0x65, 0x71, 0x75, 0x65, 0x6e, 0x74, 0x69, 0x61,
  0x6c, 0x2f, 0x63, 0x6f, 0x6e, 0x76, 0x32, 0x64, 0x2f, 0x42, 0x69, 0x61,
  0x73, 0x41, 0x64, 0x64, 0x3b, 0x73, 0x65, 0x71, 0x75, 0x65, 0x6e, 0x74,
  0x69, 0x61, 0x6c, 0x2f, 0x63, 0x6f, 0x6e, 0x76, 0x32, 0x64, 0x2f, 0x43,
  0x6f, 0x6e, 0x76, 0x32, 0x44, 0x3b, 0x73, 0x65, 0x71, 0x75, 0x65, 0x6e,
  0x74, 0x69, 0x61, 0x6c, 0x2f, 0x63, 0x6f, 0x6e, 0x76, 0x32, 0x64, 0x2f,
  0x42, 0x69, 0x61, 0x73, 0x41, 0x64, 0x64, 0x2f, 0x52, 0x65, 0x61, 0x64,
  0x56, 0x61, 0x72, 0x69, 0x61, 0x62, 0x6c, 0x65, 0x4f, 0x70, 0x2f, 0x72,
  0x65, 0x73, 0x6f, 0x75, 0x72, 0x63, 0x65, 0x00, 0x04, 0x00, 0x00, 0x00,
  0xff, 0xff, 0xff, 0xff, 0x40, 0x00, 0x00, 0x00, 0x03, 0x00, 0x00, 0x00,
  0x08, 0x00, 0x00, 0x00, 0xbc, 0xd4, 0xff, 0xff, 0xc6, 0xd5, 0xff, 0xff,
  0x04, 0x00, 0x00, 0x00, 0x00, 0x08, 0x00, 0x00, 0x5a, 0xe5, 0x87, 0x3e,
  0xf1, 0xb7, 0x98, 0xbd, 0xf9, 0x69, 0x2f, 0xbe, 0x5f, 0x18, 0x80, 0xbd,
  0xa3, 0xfa, 0x50, 0xbe, 0x2c, 0xef, 0x38, 0xbe, 0xc0, 0x26, 0xd8, 0xbd,
  0xd7, 0x05, 0x6c, 0xbe, 0x61, 0x2d, 0x94, 0x3e, 0x8b, 0xe6, 0x87, 0xbd,
  0x41, 0xfa, 0xe6, 0xbd, 0x95, 0x6e, 0x57, 0xbd, 0x28, 0x52, 0x45, 0x3b,
  0x89, 0x66, 0x78, 0xbe, 0xd1, 0x37, 0x4a, 0xbd, 0xc3, 0xba, 0x47, 0xbe,
  0x2c, 0xeb, 0x6f, 0xbe, 0xe6, 0xb6, 0xc9, 0xbc, 0x76, 0xa3, 0x3c, 0xbd,
  0x4e, 0x23, 0x3f, 0xbd, 0x6e, 0x71, 0xde, 0xbd, 0x7b, 0x9f, 0x04, 0x3d,
  0xb3, 0x0e, 0xc4, 0x3d, 0xfa, 0x6d, 0xda, 0x3c, 0x55, 0x4c, 0xc9, 0xbd,
  0xe2, 0x71, 0x4e, 0x3d, 0x08, 0xcf, 0xf1, 0x3e, 0x1a, 0x5f, 0x98, 0xbc,
  0x27, 0x9a, 0x58, 0xbe, 0xd0, 0x0d, 0x97, 0xbc, 0x67, 0xeb, 0x2d, 0x3d,
  0x5b, 0x55, 0x3a, 0x3e, 0xe4, 0x6c, 0xd8, 0xbe, 0x50, 0xef, 0xbb, 0xbe,
  0x2c, 0x07, 0x0d, 0xbf, 0x83, 0xa5, 0x4a, 0x3e, 0xd2, 0x26, 0x01, 0x3d,
  0xa2, 0x17, 0x19, 0xbf, 0x81, 0x7c, 0x48, 0xbd, 0x82, 0xe9, 0x2e, 0xbe,
  0xa2, 0xe3, 0x2d, 0xbe, 0x72, 0x76, 0xd2, 0xbe, 0x3c, 0x28, 0xa6, 0xbe,
  0x67, 0x0c, 0x4d, 0xbe, 0x82, 0x05, 0x97, 0x3d, 0x7e, 0xcf, 0x56, 0xbf,
  0x5d, 0xb3, 0x66, 0x3e, 0x58, 0x4e, 0x2b, 0xbe, 0xb1, 0xf1, 0x97, 0x3d,
  0x5b, 0xe4, 0x8d, 0xbe, 0xf9, 0x4e, 0xbd, 0x3e, 0xc2, 0xe0, 0x62, 0x3e,
  0x94, 0x92, 0x5a, 0x3e, 0xdb, 0x38, 0x4b, 0xbf, 0xb8, 0xac, 0xdf, 0xbe,
  0xaa, 0x87, 0xb0, 0xbb, 0x08, 0xb9, 0x45, 0x3e, 0x88, 0xbb, 0xe4, 0xbd,
  0xa3, 0x6a, 0xf6, 0x3e, 0x6b, 0x3e, 0xf6, 0xbd, 0x43, 0xc7, 0xfc, 0xbd,
  0x39, 0x47, 0x20, 0xbf, 0xda, 0xdf, 0x1d, 0xbf, 0x1e, 0x68, 0x93, 0x3e,
  0xcb, 0x9c, 0x67, 0xbe, 0xea, 0xa3, 0x2a, 0xbd, 0xc6, 0x90, 0x27, 0x3b,
  0x28, 0xf9, 0x6a, 0xbd, 0x8b, 0x64, 0xad, 0xbe, 0x0f, 0xe0, 0x60, 0xbb,
  0x72, 0x46, 0x5a, 0xbc, 0xbc, 0x2b, 0xf9, 0xbd, 0x4e, 0xad, 0x21, 0xbd,
  0x1e, 0x80, 0x65, 0xbd, 0x98, 0x2a, 0x82, 0xbd, 0x5e, 0x73, 0x4e, 0xbe,
  0x8f, 0xd5, 0x8b, 0xbe, 0x11, 0xb0, 0x10, 0xbd, 0x16, 0x3a, 0x62, 0xbd,
  0xc4, 0xc9, 0xaf, 0xbd, 0xf7, 0xae, 0x83, 0x3e, 0xec, 0x01, 0x63, 0xbd,
  0x04, 0x80, 0xfb, 0x3e, 0x37, 0x21, 0x0d, 0xbe, 0x96, 0x33, 0xca, 0xbc,
  0xe0, 0xc3, 0xd8, 0xbd, 0x2f, 0x2a, 0xc9, 0xbd, 0x60, 0x02, 0x53, 0x3e,
  0xc4, 0x96, 0x3d, 0x3e, 0x1b, 0x47, 0xf1, 0xbc, 0x5b, 0x15, 0x23, 0xbd,
  0x6c, 0x40, 0xf1, 0xbd, 0x59, 0x29, 0xa7, 0x3e, 0xb3, 0x7f, 0x8b, 0xbd,
  0x78, 0x56, 0x49, 0xbe, 0xea, 0x9d, 0x94, 0x3e, 0xb1, 0xf5, 0xa1, 0xbe,
  0x3d, 0x15, 0x0c, 0xbb, 0x68, 0x55, 0x39, 0x3d, 0x2a, 0x87, 0x42, 0xbe,
  0x73, 0xaf, 0x6b, 0xbe, 0x59, 0xe2, 0x22, 0xbe, 0xbf, 0xe4, 0xfa, 0xbd,
  0x28, 0x4b, 0xea, 0xbe, 0x3c, 0x0b, 0xf9, 0x3d, 0x29, 0x96, 0x63, 0xbe,
  0x66, 0x4b, 0x91, 0xbe, 0xc5, 0xa1, 0x9b, 0x3e, 0xea, 0x45, 0x94, 0x3e,
  0xb3, 0x39, 0x08, 0xbe, 0xd5, 0xb8, 0x38, 0xbe, 0x55, 0x61, 0x19, 0xbe,
  0xee, 0xcb, 0xa3, 0x3e, 0xab, 0xab, 0x03, 0xbf, 0x34, 0x4a, 0xae, 0x3c,
  0xe7, 0xd7, 0x8f, 0xbd, 0x54, 0x7c, 0xba, 0xbd, 0xde, 0x1f, 0xb3, 0xbe,
  0x67, 0xdf, 0x0a, 0x3c, 0x41, 0xd7, 0x6c, 0x3c, 0xaa, 0xb7, 0x68, 0xbe,
  0xb8, 0x7d, 0x96, 0x3c, 0x44, 0xe7, 0xb9, 0x3e, 0x71, 0xc9, 0x3d, 0xbe,
  0x97, 0xb4, 0x1c, 0xbe, 0xd3, 0x51, 0x1d, 0x3e, 0x97, 0xbb, 0x72, 0x3d,
  0x8f, 0x59, 0xa5, 0xbc, 0xa6, 0x00, 0x01, 0xbe, 0xe2, 0xc4, 0xd8, 0xbd,
  0x9e, 0xa3, 0x16, 0x3c, 0x40, 0x9f, 0xc0, 0xba, 0x80, 0x85, 0xeb, 0x3d,
  0x3b, 0xde, 0xc1, 0x3e, 0x36, 0x01, 0x03, 0x3f, 0x87, 0xdf, 0xcc, 0xbc,
  0x86, 0x05, 0x2b, 0xbe, 0x24, 0x75, 0x17, 0xbe, 0x1e, 0xe1, 0x37, 0xbe,
  0x4b, 0x9d, 0x11, 0xbe, 0xbe, 0x2d, 0x53, 0x3d, 0x81, 0x0d, 0xc5, 0xbd,
  0xaf, 0x0c, 0x49, 0xbe, 0x17, 0x4e, 0x27, 0xbe, 0x65, 0x3d, 0xb5, 0xbb,
  0xe2, 0xaf, 0xdc, 0xbd, 0xc0, 0xca, 0x87, 0xbe, 0xa6, 0xe4, 0x5e, 0xbe,
  0xc4, 0xfd, 0xa1, 0xbb, 0x13, 0xf5, 0x65, 0x3d, 0x3a, 0xb4, 0x1d, 0xbe,
  0x04, 0x16, 0x1b, 0xbe, 0x26, 0xa1, 0x3e, 0xbd, 0xe7, 0xa8, 0x3a, 0xbd,
  0x73, 0x34, 0x28, 0xbe, 0x58, 0x64, 0x96, 0xbd, 0x97, 0x8f, 0x78, 0xbd,
  0xe9, 0xe1, 0xb7, 0xbe, 0xf5, 0x16, 0xfb, 0xbd, 0x1b, 0x0f, 0xa0, 0xbc,
  0x39, 0x8a, 0x5d, 0xbe, 0xd6, 0x17, 0xa6, 0xbe, 0x79, 0x66, 0x2e, 0xbf,
  0x88, 0xdc, 0x1c, 0xbf, 0x61, 0xd5, 0x7d, 0xbe, 0xce, 0x90, 0x93, 0xbe,
  0x3b, 0xbd, 0xae, 0xbe, 0x33, 0x2f, 0x3c, 0xbe, 0xdd, 0x6c, 0x93, 0x3d,
  0x96, 0x42, 0x27, 0x3e, 0xc9, 0x83, 0x35, 0xbe, 0xb0, 0x73, 0xe8, 0x3d,
  0x1e, 0x84, 0x25, 0xbd, 0xa5, 0xdf, 0xf7, 0xbe, 0xd7, 0x80, 0xbe, 0x3d,
  0xe8, 0x9d, 0xbd, 0x3d, 0xac, 0xcc, 0x2f, 0xbe, 0x56, 0x83, 0x1a, 0x3e,
  0x25, 0xd0, 0xb1, 0xbe, 0x85, 0x8c, 0x01, 0xbe, 0xad, 0xf9, 0x0c, 0x3e,
  0x7f, 0xed, 0x15, 0xbf, 0x2b, 0xa7, 0x83, 0xbe, 0x95, 0x3a, 0x26, 0xbd,
  0x94, 0x3b, 0x32, 0xbe, 0x19, 0xfb, 0x88, 0x3d, 0x8e, 0x58, 0x6f, 0xbe,
  0x4a, 0xe0, 0x4e, 0x3c, 0xf3, 0x0a, 0x1f, 0x3e, 0xca, 0x35, 0xd9, 0xbe,
  0xac, 0xc4, 0x51, 0xbd, 0x0b, 0x76, 0x96, 0x3c, 0x33, 0x90, 0xa1, 0xbe,
  0xbb, 0xeb, 0xe0, 0xbb, 0xbd, 0x3a, 0x15, 0xbd, 0xae, 0xa0, 0xb9, 0xbd,
  0xaa, 0x69, 0xc4, 0xbd, 0xe6, 0x3c, 0x3a, 0xbd, 0x9c, 0x68, 0x0d, 0x3e,
  0x5d, 0xa1, 0x91, 0xbc, 0x04, 0x32, 0x9a, 0x3d, 0x31, 0x19, 0x99, 0x3b,
  0xc7, 0x1d, 0xf9, 0xbc, 0x0c, 0x43, 0x7d, 0xbd, 0xad, 0x6e, 0x9c, 0xbe,
  0x72, 0xeb, 0xd8, 0xbc, 0x59, 0x1d, 0xa1, 0xbc, 0x69, 0x1f, 0x3a, 0xbd,
  0x3b, 0xb6, 0x71, 0x3e, 0x12, 0x47, 0x97, 0xbb, 0x6b, 0x6b, 0xdd, 0x3c,
  0xc0, 0x2b, 0x7f, 0x3c, 0xab, 0x2f, 0x80, 0xbe, 0x7a, 0x19, 0x18, 0x3e,
  0xeb, 0xe5, 0x1d, 0xbc, 0x64, 0x3f, 0x28, 0x3e, 0x2e, 0xff, 0x3d, 0x3e,
  0xf0, 0xd2, 0x85, 0xbc, 0xb7, 0xec, 0x3e, 0xbd, 0xf7, 0x55, 0x79, 0xbd,
  0x51, 0x93, 0xc5, 0xbe, 0x27, 0x06, 0x8f, 0xbd, 0xce, 0xc5, 0x04, 0xbe,
  0x78, 0x7b, 0xb3, 0xbd, 0x1b, 0x59, 0x6d, 0xbe, 0x8c, 0x8e, 0x22, 0xbe,
  0x14, 0x60, 0x93, 0xbd, 0x75, 0xde, 0x54, 0x3d, 0x23, 0x5a, 0x8b, 0xbe,
  0x05, 0x6e, 0x42, 0xbd, 0x7a, 0xfa, 0x0c, 0xbe, 0x0f, 0x9a, 0x24, 0x3e,
  0x08, 0x35, 0xbf, 0xbe, 0x29, 0x03, 0x0e, 0xbe, 0xd9, 0x2e, 0xb1, 0x3d,
  0x2c, 0x55, 0x20, 0xbe, 0x8e, 0x86, 0x92, 0xbe, 0x32, 0x66, 0x44, 0xbe,
  0x5d, 0x1e, 0xa9, 0xbd, 0x0c, 0x20, 0x8c, 0xbe, 0x9d, 0x50, 0x91, 0xbe,
  0x8d, 0x1d, 0x4c, 0xbe, 0x5e, 0x78, 0xc2, 0xbb, 0xd5, 0xab, 0x14, 0xbe,
  0x41, 0x8d, 0x8b, 0xbc, 0xbd, 0xe5, 0x8c, 0x3d, 0x31, 0xfe, 0xad, 0xbc,
  0x7d, 0xa7, 0x3b, 0x3d, 0x19, 0xc5, 0x02, 0xbc, 0x19, 0xf8, 0xec, 0xbd,
  0xfb, 0x4f, 0x94, 0xbe, 0x01, 0x49, 0x89, 0xbe, 0xb4, 0x9a, 0x35, 0x3b,
  0x07, 0x72, 0x29, 0x3d, 0x61, 0x99, 0x80, 0xbe, 0xc2, 0x32, 0x5f, 0x3b,
  0xaa, 0xcb, 0x1e, 0x3e, 0x4d, 0x3f, 0x4b, 0xbe, 0xfa, 0x65, 0x80, 0x3d,
  0x22, 0x30, 0xfb, 0x3c, 0xb2, 0x83, 0x0d, 0xbe, 0xc2, 0xd1, 0x1a, 0x3e,
  0x8c, 0x13, 0x13, 0xbe, 0xbc, 0x70, 0x05, 0xbd, 0xaf, 0x45, 0xbc, 0x3d,
  0x79, 0xd6, 0x8e, 0xbe, 0x60, 0x5d, 0x28, 0xbe, 0x4f, 0xce, 0xc3, 0xbd,
  0x64, 0x76, 0x43, 0x3e, 0x67, 0x3e, 0x0a, 0xbe, 0xf2, 0x75, 0xf9, 0x3e,
  0x04, 0x74, 0xd9, 0xbd, 0x40, 0xae, 0x62, 0x3c, 0xa9, 0x62, 0x11, 0xbe,
  0x7e, 0x23, 0x2d, 0x3d, 0xf7, 0x70, 0xbe, 0x3c, 0xcf, 0x6e, 0x0d, 0xbe,
  0xca, 0x15, 0x17, 0x3e, 0x49, 0xb8, 0xac, 0xbd, 0x10, 0x2f, 0x3d, 0xbb,
  0x32, 0x2a, 0xd1, 0x3d, 0xc0, 0x30, 0xd4, 0xbd, 0x52, 0x68, 0x48, 0xba,
  0x99, 0xc1, 0x3c, 0x3d, 0xc5, 0x5f, 0x1a, 0xbe, 0x81, 0x01, 0x67, 0x3e,
  0xde, 0x47, 0xa0, 0x3d, 0xe3, 0x89, 0x9d, 0xbb, 0x6e, 0x9b, 0xe6, 0xbe,
  0x32, 0xc5, 0x0f, 0xbf, 0xa5, 0x3c, 0x8a, 0xbe, 0x15, 0xdf, 0x49, 0xbb,
  0x62, 0x05, 0xf5, 0xbd, 0x49, 0x8c, 0xeb, 0xbe, 0x46, 0xd7, 0xb1, 0xbc,
  0xa2, 0xa6, 0xe7, 0xbe, 0x36, 0x6a, 0x94, 0x3d, 0x80, 0x71, 0x31, 0xbe,
  0x0c, 0x21, 0xf6, 0xbd, 0x4f, 0x30, 0xaa, 0x3e, 0x83, 0x64, 0x24, 0x3e,
  0xd4, 0xf0, 0x0d, 0xbf, 0xec, 0xca, 0x4d, 0x3e, 0x99, 0xec, 0x94, 0x3d,
  0x6f, 0xba, 0xfa, 0x3d, 0x10, 0x11, 0x4b, 0xbd, 0xdb, 0xa3, 0x8f, 0xbe,
  0x53, 0xe9, 0xae, 0x3d, 0xd6, 0xd7, 0x3b, 0xbd, 0xa1, 0x79, 0xac, 0xbf,
  0x21, 0xce, 0x8a, 0xbe, 0xa7, 0x66, 0x74, 0xbd, 0x9f, 0x82, 0x64, 0x3e,
  0x7a, 0x3c, 0xdd, 0x3d, 0x71, 0x7c, 0x2d, 0xbe, 0x12, 0xbe, 0x1f, 0xbe,
  0x48, 0xe7, 0x66, 0x3d, 0x90, 0x41, 0xb9, 0xbe, 0xb0, 0xe2, 0x93, 0xbd,
  0xce, 0xe4, 0x17, 0x3e, 0x99, 0x9d, 0x96, 0x3e, 0xf5, 0x71, 0x15, 0xbf,
  0x8c, 0x18, 0x8d, 0xbf, 0xc2, 0xe7, 0x96, 0x3d, 0xf7, 0xa1, 0x01, 0x3d,
  0x86, 0x58, 0xc4, 0xbf, 0x5b, 0x88, 0xd2, 0xbc, 0x53, 0xc9, 0x8b, 0xbd,
  0x97, 0x4b, 0xc6, 0xbc, 0x7e, 0x92, 0x92, 0xbf, 0xb3, 0xa1, 0x84, 0xbe,
  0x71, 0x80, 0x0a, 0xbe, 0xd3, 0x5d, 0x6d, 0xbd, 0xe3, 0xec, 0xcd, 0xbf,
  0x0e, 0xaa, 0xfc, 0x3d, 0x9b, 0x1a, 0x70, 0xbe, 0x8a, 0x1e, 0xb5, 0x3e,
  0x86, 0x1c, 0xd7, 0xbe, 0xb7, 0x85, 0x13, 0x3d, 0x51, 0x87, 0xe5, 0xbc,
  0xfc, 0x4b, 0x36, 0xbd, 0x4e, 0x86, 0x79, 0xbf, 0xf0, 0x5b, 0x44, 0x3d,
  0x3d, 0xb2, 0x79, 0x3e, 0x2c, 0xd5, 0x2a, 0x3e, 0x67, 0x44, 0x14, 0xbe,
  0x85, 0x36, 0xc2, 0x3d, 0x83, 0xa2, 0xb0, 0xbe, 0x7d, 0x34, 0x27, 0xbc,
  0x42, 0xb7, 0xb9, 0xbe, 0x99, 0x75, 0x1c, 0xbe, 0x8a, 0xe3, 0xfd, 0x3e,
  0x73, 0xe4, 0xab, 0x3c, 0x23, 0x87, 0x80, 0xbd, 0x83, 0x0f, 0xc0, 0xbd,
  0x47, 0x00, 0x2d, 0xbe, 0x90, 0x79, 0xaf, 0x3d, 0xe2, 0x31, 0x10, 0xbe,
  0xd1, 0xe1, 0xc1, 0xbd, 0xd3, 0x5f, 0xbb, 0x3d, 0x1a, 0x08, 0xf4, 0x3d,
  0xc8, 0x4f, 0xb5, 0xbc, 0xf7, 0xe6, 0x4b, 0x3d, 0xd0, 0xec, 0x27, 0xbe,
  0x46, 0xa4, 0xa2, 0x3d, 0x8f, 0xe7, 0x4a, 0xbd, 0x51, 0xfc, 0xe5, 0xbd,
  0xc0, 0x37, 0x55, 0x3d, 0xdd, 0x50, 0xa2, 0xbc, 0x7a, 0x5c, 0x51, 0xbc,
  0x3c, 0x6d, 0x85, 0xbd, 0x46, 0x6e, 0x0f, 0xbe, 0xb7, 0xb8, 0xa3, 0x3e,
  0xa3, 0xd3, 0x47, 0xbc, 0xf3, 0x14, 0x69, 0xbe, 0x1b, 0x98, 0x97, 0x3e,
  0xdd, 0xaa, 0xed, 0x3c, 0x47, 0x3e, 0x59, 0x3d, 0x82, 0x3b, 0x0b, 0xbe,
  0x17, 0x0f, 0xcc, 0x3d, 0xf8, 0xdf, 0xd7, 0xbd, 0x90, 0x79, 0xfb, 0xbc,
  0x02, 0x27, 0x81, 0xbe, 0x88, 0xa2, 0x02, 0xbe, 0xa9, 0xe1, 0xf1, 0x3d,
  0xb3, 0xd0, 0xaa, 0xbd, 0x5e, 0xd6, 0x14, 0xbe, 0xf2, 0xc3, 0xa5, 0xbc,
  0xa0, 0xb3, 0x78, 0xbd, 0xfe, 0x4d, 0xcd, 0xbe, 0xe8, 0xcc, 0xb3, 0xbd,
  0xbe, 0x5e, 0x1e, 0x3e, 0x26, 0xc6, 0xc6, 0x3b, 0x04, 0x32, 0xbb, 0xbd,
  0x97, 0x1b, 0x46, 0xbe, 0x2d, 0x45, 0x13, 0xbd, 0xe6, 0xbd, 0x24, 0x3f,
  0xf2, 0xfb, 0xe7, 0xbe, 0xeb, 0x65, 0x83, 0xbd, 0x48, 0xf4, 0x16, 0xbd,
  0x0e, 0xc2, 0x8a, 0xbd, 0x29, 0x81, 0x66, 0xbd, 0x64, 0x08, 0x37, 0xbd,
  0x76, 0x82, 0xda, 0xbd, 0x41, 0x9a, 0xe1, 0xbd, 0x94, 0x7a, 0xf0, 0x3d,
  0xbd, 0x25, 0x68, 0x3d, 0x2d, 0x4c, 0x34, 0xbd, 0xa6, 0xfe, 0xcc, 0x3c,
  0x2c, 0xa3, 0x92, 0xbc, 0x95, 0xa0, 0x1c, 0x3d, 0x0b, 0xb0, 0x1d, 0x3d,
  0xa3, 0x67, 0x14, 0xbe, 0x04, 0x90, 0xce, 0x3e, 0x89, 0x6d, 0x32, 0xbd,
  0x55, 0x10, 0x2d, 0xbd, 0x7d, 0xf2, 0xa8, 0x3e, 0xa7, 0x0c, 0x09, 0x3e,
  0x72, 0xc4, 0x01, 0xbe, 0x25, 0x57, 0xb3, 0x3e, 0x62, 0xfb, 0x2c, 0xbe,
  0x48, 0x70, 0x7b, 0x3c, 0x27, 0x5b, 0x18, 0xbe, 0xa7, 0x2f, 0x9f, 0xbd,
  0xfc, 0xf1, 0xc5, 0x3d, 0xc9, 0x02, 0xa0, 0xbd, 0xb5, 0x89, 0x71, 0xbe,
  0xc8, 0x0e, 0x97, 0xbd, 0x10, 0x87, 0xc5, 0xbd, 0x25, 0x88, 0x08, 0xbe,
  0x1d, 0x07, 0xeb, 0xbd, 0xfd, 0x69, 0xe9, 0xbd, 0x81, 0xf4, 0x5b, 0x3e,
  0x92, 0x13, 0x0d, 0xbd, 0x08, 0xc8, 0x14, 0xbe, 0xaa, 0xee, 0x32, 0xbd,
  0x0f, 0x0e, 0xe4, 0xbd, 0x4e, 0xac, 0xac, 0xbd, 0xe5, 0xe9, 0xb0, 0xbd,
  0x5f, 0xbb, 0x27, 0xbe, 0x0d, 0x89, 0xf6, 0x3d, 0xf5, 0xb2, 0x41, 0xbd,
  0x2a, 0x53, 0x2f, 0x3e, 0xcb, 0xd7, 0x4b, 0xbd, 0x0a, 0x0b, 0x01, 0x3c,
  0xe2, 0x2d, 0xcf, 0xbd, 0xa4, 0x9d, 0x5c, 0x3c, 0x1e, 0x58, 0xf7, 0xbd,
  0x3c, 0xa6, 0xa4, 0xbe, 0x01, 0x27, 0xb8, 0xbe, 0x1c, 0x9c, 0xc6, 0xbd,
  0x97, 0xcf, 0x8d, 0xbe, 0xaa, 0x38, 0x38, 0xbe, 0xb3, 0xaa, 0xd5, 0x3e,
  0x90, 0xc8, 0x5f, 0xbe, 0x36, 0x6e, 0x68, 0xbe, 0x8e, 0x4c, 0x93, 0xbe,
  0x8b, 0x9a, 0x0f, 0xbe, 0x03, 0x37, 0x09, 0xbe, 0xd2, 0x5c, 0x57, 0xbe,
  0x52, 0x2a, 0xb0, 0xbe, 0x36, 0x78, 0xbb, 0x3e, 0x72, 0x4a, 0x8c, 0xbe,
  0x74, 0x7e, 0x07, 0xbf, 0x98, 0x67, 0xee, 0xbe, 0x38, 0x6d, 0x85, 0xbe,
  0x1e, 0xc8, 0x2b, 0xbe, 0xf3, 0x83, 0x0c, 0xbf, 0x38, 0x37, 0xe4, 0xbe,
  0xbe, 0x60, 0xf6, 0x3e, 0x43, 0xe8, 0x95, 0xbd, 0x60, 0x17, 0xd8, 0xbe,
  0xd3, 0xbd, 0x01, 0xbf, 0xf0, 0xb8, 0x72, 0xbe, 0xad, 0x12, 0x94, 0xbe,
  0x8a, 0x37, 0x47, 0xbe, 0x32, 0x2a, 0x6c, 0xbe, 0x44, 0xd4, 0x7b, 0x3e,
  0x94, 0x4e, 0x36, 0x3e, 0xc5, 0xd2, 0xe2, 0xbe, 0x83, 0x0a, 0x04, 0xbf,
  0x3c, 0xbe, 0x99, 0xbc, 0xfc, 0x23, 0x87, 0x3c, 0xd1, 0xc2, 0x04, 0xbc,
  0xe3, 0xd7, 0x2e, 0xbe, 0x62, 0xf5, 0x78, 0xbd, 0x45, 0xd2, 0x0a, 0x3d,
  0x67, 0xd1, 0x85, 0xbe, 0xf0, 0x39, 0xc8, 0xbe, 0xeb, 0x6c, 0x13, 0x3d,
  0x50, 0x78, 0xc5, 0xbc, 0xf7, 0x74, 0xa2, 0xbd, 0x3c, 0xa4, 0x0c, 0xbe,
  0x94, 0x5b, 0x50, 0xbd, 0x72, 0x88, 0x48, 0xbc, 0x27, 0xf9, 0xf2, 0xbd,
  0x84, 0x5a, 0x5f, 0x3c, 0x5e, 0xcb, 0xa3, 0x3d, 0x40, 0x9d, 0x5f, 0xbd,
  0x77, 0x2b, 0x00, 0xbd, 0x16, 0xc0, 0x08, 0xbe, 0x70, 0xdc, 0x31, 0xbe,
  0x14, 0x8c, 0x53, 0xbd, 0x13, 0x49, 0x4c, 0xbe, 0x99, 0x0c, 0x1f, 0x3f,
  0x74, 0x13, 0x11, 0xbe, 0x56, 0x08, 0x7e, 0xbe, 0x5f, 0xa1, 0x9a, 0x3d,
  0xf0, 0x8a, 0xaf, 0x3e, 0xda, 0xbd, 0x63, 0xbe, 0xc2, 0x48, 0x26, 0x3c,
  0x92, 0x34, 0xba, 0xbd, 0x9e, 0xdd, 0xff, 0xff, 0x10, 0x00, 0x00, 0x00,
  0x0a, 0x00, 0x00, 0x00, 0x1c, 0x00, 0x00, 0x00, 0x38, 0x00, 0x00, 0x00,
  0x04, 0x00, 0x00, 0x00, 0x10, 0x00, 0x00, 0x00, 0x04, 0x00, 0x00, 0x00,
  0x01, 0x00, 0x00, 0x00, 0x08, 0x00, 0x00, 0x00, 0x1a, 0x00, 0x00, 0x00,
  0x73, 0x65, 0x71, 0x75, 0x65, 0x6e, 0x74, 0x69, 0x61, 0x6c, 0x2f, 0x63,
  0x6f, 0x6e, 0x76, 0x32, 0x64, 0x5f, 0x31, 0x2f, 0x43, 0x6f, 0x6e, 0x76,
  0x32, 0x44, 0x00, 0x00, 0x14, 0xdd, 0xff, 0xff, 0x1e, 0xde, 0xff, 0xff,
  0x04, 0x00, 0x00, 0x00, 0x80, 0x01, 0x00, 0x00, 0xa7, 0x52, 0xe7, 0xbe,
  0xeb, 0xdb, 0xa4, 0xbb, 0x4a, 0x42, 0x98, 0xbd, 0x43, 0x0b, 0xa7, 0xbe,
  0xc7, 0x23, 0x08, 0xbe, 0x34, 0xf8, 0x0d, 0x3e, 0x4e, 0x95, 0x8c, 0x3e,
  0x8a, 0x1c, 0xc4, 0x3d, 0xea, 0xbf, 0x8f, 0xbc, 0x62, 0x1c, 0xe3, 0x3e,
  0xe0, 0x04, 0xb5, 0x3d, 0x7e, 0x29, 0xc3, 0xbd, 0x3e, 0x13, 0x9e, 0xbe,
  0xba, 0xbe, 0x49, 0xbd, 0x93, 0x2f, 0x8e, 0x3d, 0xe8, 0x81, 0x38, 0xbe,
  0x84, 0x20, 0x6f, 0xbd, 0x12, 0x83, 0x3b, 0x3d, 0x9b, 0x64, 0x7b, 0xbd,
  0x2d, 0xaa, 0x23, 0x3c, 0x1b, 0xa6, 0x53, 0x3c, 0xb9, 0x9b, 0x1d, 0xbe,
  0x70, 0x21, 0x8d, 0xbb, 0xd4, 0x0f, 0xa2, 0x3d, 0xeb, 0x6a, 0x2b, 0x3e,
  0x04, 0xad, 0xaa, 0x3e, 0x6a, 0x70, 0x8b, 0xbd, 0xb1, 0x35, 0x81, 0xbc,
  0xc8, 0xec, 0x94, 0xbd, 0xb1, 0x48, 0x72, 0xbe, 0x22, 0xfa, 0x36, 0xbd,
  0xfe, 0x12, 0x88, 0xbe, 0x8b, 0xea, 0x79, 0xbd, 0x0d, 0x56, 0x07, 0x3d,
  0x83, 0x10, 0x66, 0xbe, 0xd0, 0x09, 0x4b, 0x3d, 0x8d, 0xb2, 0x1b, 0x3d,
  0xbb, 0x7d, 0xaa, 0xbe, 0xf9, 0xf8, 0x28, 0xbd, 0xe0, 0x37, 0xc5, 0xbd,
  0x2c, 0xb9, 0x39, 0xbe, 0xf6, 0xc8, 0x8b, 0xbd, 0x42, 0x4c, 0xba, 0x3c,
  0x1e, 0x95, 0xfc, 0x3d, 0x4a, 0xfd, 0x5f, 0xbc, 0xb6, 0xe6, 0x53, 0x3e,
  0x2a, 0x0b, 0x3d, 0x3e, 0xeb, 0x1f, 0x1e, 0xbb, 0x9e, 0xd9, 0x18, 0xbd,
  0xd5, 0xbe, 0x91, 0xbd, 0x74, 0x45, 0x20, 0xbd, 0xbf, 0xd8, 0x9e, 0xbd,
  0xf7, 0x97, 0xf0, 0xbd, 0xae, 0x73, 0x52, 0xbe, 0xa6, 0x6f, 0x93, 0x3d,
  0x1a, 0x5d, 0xfd, 0x3d, 0xf3, 0xeb, 0xe3, 0x3d, 0xed, 0x0d, 0xdf, 0x3d,
  0xe8, 0x9e, 0x4e, 0x3e, 0xc4, 0xfc, 0x4a, 0x3e, 0x47, 0xa2, 0x6a, 0xbe,
  0x29, 0x8c, 0x15, 0x3e, 0x07, 0x2d, 0x87, 0x3e, 0x9d, 0x14, 0xee, 0x3d,
  0x42, 0xc0, 0xef, 0xbe, 0xe3, 0xa4, 0x8b, 0xbe, 0xd0, 0x2c, 0xf6, 0xbc,
  0xc0, 0xb6, 0xe2, 0x3d, 0xe3, 0x9b, 0xa5, 0xbc, 0x34, 0xe7, 0xd8, 0xbd,
  0xc0, 0xc2, 0x4d, 0x3d, 0x35, 0xe7, 0xd7, 0xbd, 0x13, 0x68, 0x06, 0x3f,
  0x72, 0xb9, 0xf5, 0xbd, 0xe3, 0x25, 0xa4, 0x3d, 0xe7, 0x3f, 0xa8, 0x3e,
  0x5e, 0xd6, 0x2d, 0x3e, 0x94, 0x0d, 0x18, 0xbe, 0x28, 0xc1, 0x9e, 0xbd,
  0xb8, 0x74, 0xc2, 0x3d, 0x23, 0x47, 0x99, 0x3d, 0xf2, 0xf0, 0xac, 0xbe,
  0xe1, 0x1f, 0x0e, 0xbe, 0x39, 0x5b, 0x7b, 0xbe, 0xc6, 0xa6, 0xd0, 0x3e,
  0x69, 0x73, 0x94, 0xbe, 0xb4, 0xcb, 0x84, 0xbe, 0x52, 0xae, 0xa2, 0xbd,
  0x85, 0x63, 0xad, 0xbd, 0x0c, 0x4c, 0xf4, 0x3d, 0x72, 0x33, 0x2d, 0xbe,
  0xda, 0x8e, 0x9e, 0x3d, 0xe8, 0x37, 0x8c, 0x3d, 0x22, 0x0b, 0x61, 0xbe,
  0x5a, 0x25, 0xfa, 0x3d, 0x54, 0x83, 0x57, 0x3e, 0x76, 0xdf, 0xff, 0xff,
  0x10, 0x00, 0x00, 0x00, 0x09, 0x00, 0x00, 0x00, 0x1c, 0x00, 0x00, 0x00,
  0x38, 0x00, 0x00, 0x00, 0x04, 0x00, 0x00, 0x00, 0x08, 0x00, 0x00, 0x00,
  0x04, 0x00, 0x00, 0x00, 0x03, 0x00, 0x00, 0x00, 0x01, 0x00, 0x00, 0x00,
  0x18, 0x00, 0x00, 0x00, 0x73, 0x65, 0x71, 0x75, 0x65, 0x6e, 0x74, 0x69,
  0x61, 0x6c, 0x2f, 0x63, 0x6f, 0x6e, 0x76, 0x32, 0x64, 0x2f, 0x43, 0x6f,
  0x6e, 0x76, 0x32, 0x44, 0x00, 0x00, 0x00, 0x00, 0xec, 0xde, 0xff, 0xff,
  0xf6, 0xdf, 0xff, 0xff, 0x04, 0x00, 0x00, 0x00, 0x40, 0x01, 0x00, 0x00,
  0x43, 0x4b, 0x47, 0x3d, 0x26, 0x0b, 0x2a, 0x3e, 0x77, 0xa1, 0x1e, 0x3e,
  0xe6, 0xa9, 0x0d, 0x3d, 0x5b, 0x31, 0x05, 0x3e, 0x8c, 0x37, 0x60, 0x3e,
  0xcd, 0x56, 0x54, 0x3e, 0xee, 0x8b, 0x93, 0xbe, 0x1d, 0xf9, 0x7d, 0x3a,
  0xa2, 0xd0, 0xef, 0x3d, 0x1b, 0x42, 0xeb, 0x3d, 0xe8, 0x4e, 0x0d, 0x3e,
  0xa3, 0x79, 0xf9, 0xbd, 0x6e, 0xe7, 0x72, 0xbe, 0x3f, 0x65, 0x42, 0x3d,
  0x65, 0xaa, 0xe5, 0x3d, 0xca, 0xb4, 0x36, 0xbe, 0xcb, 0x38, 0x5b, 0x3e,
  0xfb, 0x29, 0x22, 0x3e, 0x0e, 0x85, 0xc4, 0xbe, 0xfd, 0x10, 0x0e, 0x3d,
  0xda, 0xef, 0x12, 0x3e, 0x7c, 0x9f, 0x68, 0x3d, 0x26, 0x3c, 0xbe, 0xbe,
  0x11, 0xf3, 0x5b, 0xbe, 0xac, 0x46, 0x95, 0x3d, 0x30, 0x88, 0x0d, 0xbd,
  0xe1, 0x6c, 0x5a, 0x3e, 0xd3, 0x23, 0xde, 0xbd, 0xe5, 0x1b, 0xa3, 0xbe,
  0xf6, 0x67, 0x64, 0xbc, 0xfc, 0xb2, 0x8c, 0x3d, 0x4d, 0xb0, 0x92, 0xbc,
  0x2c, 0x23, 0x74, 0x3d, 0xc6, 0xd5, 0xc2, 0xbd, 0xe6, 0xdc, 0xe5, 0xbc,
  0x0c, 0xe1, 0x9f, 0x3c, 0xdd, 0x95, 0x71, 0x3e, 0x83, 0x03, 0x8f, 0xbe,
  0xfa, 0x21, 0xba, 0xbe, 0x7e, 0xd0, 0x11, 0xbf, 0xb6, 0x7d, 0xb8, 0xbd,
  0xac, 0x19, 0x37, 0x3e, 0xe1, 0xd2, 0xc8, 0x3d, 0x59, 0x78, 0x29, 0xbd,
  0xd6, 0x18, 0x25, 0xbe, 0xa2, 0x02, 0xec, 0x3d, 0x3a, 0xde, 0x8c, 0x3d,
  0x46, 0xb7, 0xbd, 0x3d, 0x32, 0x5e, 0x5c, 0x3e, 0xae, 0x10, 0x14, 0x3e,
  0x47, 0x26, 0xbd, 0x3d, 0xff, 0x61, 0x03, 0x3e, 0x77, 0x3d, 0x35, 0x3e,
  0xbc, 0xe6, 0x2b, 0x3e, 0x98, 0x15, 0xab, 0xbe, 0x68, 0x4f, 0xa7, 0xbd,
  0x89, 0x7d, 0x25, 0x3d, 0x22, 0xa1, 0x27, 0x3e, 0x68, 0x87, 0xd7, 0x3d,
  0x7b, 0xbb, 0xa9, 0xbd, 0x06, 0xe4, 0xcb, 0xbd, 0xf9, 0x5c, 0x3d, 0xbd,
  0xdd, 0x32, 0x11, 0x3e, 0x74, 0xc9, 0x96, 0x3c, 0xcc, 0xba, 0xd0, 0x3d,
  0x63, 0x8c, 0xef, 0x3c, 0x66, 0x0a, 0xaa, 0x3d, 0x4d, 0xf2, 0x41, 0x3d,
  0x40, 0x7c, 0xad, 0x3d, 0x8e, 0xb7, 0x00, 0x3e, 0x59, 0x80, 0x8f, 0xbe,
  0x9d, 0x06, 0xc1, 0xbb, 0x2d, 0xd6, 0xac, 0x3c, 0x4c, 0x60, 0xfe, 0x3d,
  0xf4, 0x88, 0xd5, 0x3d, 0x3b, 0x99, 0x01, 0xbe, 0x25, 0x91, 0xb3, 0xbd,
  0x27, 0xdd, 0xec, 0xbd, 0x92, 0x29, 0x4e, 0x3d, 0x0e, 0xe1, 0xff, 0xff,
  0x10, 0x00, 0x00, 0x00, 0x08, 0x00, 0x00, 0x00, 0x14, 0x00, 0x00, 0x00,
  0x30, 0x00, 0x00, 0x00, 0x02, 0x00, 0x00, 0x00, 0x05, 0x00, 0x00, 0x00,
  0x10, 0x00, 0x00, 0x00, 0x19, 0x00, 0x00, 0x00, 0x73, 0x65, 0x71, 0x75,
  0x65, 0x6e, 0x74, 0x69, 0x61, 0x6c, 0x2f, 0x64, 0x65, 0x6e, 0x73, 0x65,
  0x5f, 0x31, 0x2f, 0x4d, 0x61, 0x74, 0x4d, 0x75, 0x6c, 0x00, 0x00, 0x00,
  0x7c, 0xe0, 0xff, 0xff, 0x86, 0xe1, 0xff, 0xff, 0x04, 0x00, 0x00, 0x00,
  0x00, 0x1c, 0x00, 0x00, 0xe1, 0x20, 0xb6, 0x3d, 0x94, 0x33, 0xf5, 0xbc,
  0xc6, 0x57, 0x44, 0xbd, 0x0c, 0x4a, 0x36, 0x3e, 0xc7, 0xf5, 0xca, 0x3e,
  0xbb, 0xa6, 0x96, 0xbd, 0xa5, 0x48, 0xe4, 0x3d, 0xff, 0xe1, 0x2e, 0xbe,
  0xf9, 0xf7, 0xf4, 0x3c, 0xdd, 0x79, 0xfd, 0x3d, 0x6d, 0x4a, 0x35, 0xbe,
  0x8b, 0x0b, 0xd7, 0xbc, 0x73, 0xe3, 0x0f, 0x3e, 0x07, 0xfe, 0x97, 0x3e,
  0x79, 0x3f, 0x30, 0xbe, 0xa0, 0xb3, 0xf2, 0xbd, 0xdf, 0xfe, 0x80, 0x3d,
  0x37, 0x20, 0xe1, 0xbd, 0x76, 0xe6, 0x7c, 0xbe, 0x93, 0x9e, 0x37, 0xbe,
  0xb6, 0xe2, 0x37, 0xbe, 0x8f, 0x9f, 0x59, 0xbe, 0x16, 0xc1, 0xb3, 0x3d,
  0xbb, 0x97, 0x67, 0xbd, 0xec, 0xd9, 0x6b, 0xbd, 0x6d, 0x0a, 0xa6, 0x3c,
  0x01, 0xd8, 0x34, 0xbe, 0x89, 0xcf, 0xc7, 0xbe, 0xb1, 0xf6, 0x61, 0xbd,
  0x60, 0xe4, 0x3e, 0x3d, 0x3a, 0xed, 0xde, 0xbd, 0xaa, 0x7b, 0xda, 0xbd,
  0x69, 0x13, 0xa8, 0xbe, 0x6a, 0x51, 0xdd, 0xbd, 0xde, 0x16, 0x34, 0xbf,
  0x0b, 0xbc, 0xac, 0xbe, 0xb7, 0xa1, 0xcf, 0x3d, 0xa9, 0x38, 0x41, 0x3e,
  0x81, 0x1e, 0xe4, 0xbd, 0xdb, 0x11, 0x0c, 0x3e, 0x6f, 0xec, 0xd7, 0xbc,
  0x8a, 0x61, 0xef, 0xbd, 0x73, 0xae, 0x7a, 0x3d, 0xc2, 0x88, 0xb3, 0xbe,
  0xd7, 0xed, 0x83, 0xbd, 0xfd, 0x71, 0x60, 0xbd, 0xfa, 0xda, 0x82, 0xbe,
  0xc7, 0xfb, 0xac, 0x3c, 0x6e, 0x6e, 0x4d, 0xbf, 0xc3, 0x24, 0xd3, 0xbd,
  0x58, 0x71, 0x21, 0xbf, 0x0e, 0x33, 0x30, 0xbe, 0x97, 0xcb, 0xdd, 0x3d,
  0x64, 0x6b, 0x57, 0x3c, 0x0a, 0xd2, 0x2a, 0xbe, 0xcb, 0x8c, 0xe1, 0x3d,
  0xc7, 0xf7, 0x97, 0xbd, 0xf7, 0xdf, 0xfc, 0xbc, 0x46, 0x48, 0x7a, 0xbd,
  0x46, 0xac, 0xdc, 0xbe, 0x8f, 0x0f, 0x5c, 0xbd, 0x8e, 0xc9, 0xa6, 0xbd,
  0xcd, 0x25, 0x9e, 0x3d, 0x11, 0xbc, 0x71, 0x3e, 0x11, 0xbe, 0x3d, 0x3d,
  0x18, 0xba, 0x8b, 0xbd, 0x9c, 0x52, 0x3d, 0xbd, 0x06, 0x1c, 0x55, 0x3e,
  0x65, 0xf2, 0x95, 0x3d, 0xc7, 0x19, 0x1a, 0x3e, 0x61, 0xfe, 0x99, 0xbd,
  0x80, 0x81, 0xad, 0x3d, 0x5d, 0xb8, 0xa0, 0xbd, 0xa8, 0x63, 0xf3, 0xbc,
  0xbb, 0xb4, 0x88, 0x3c, 0x7c, 0x92, 0xba, 0xbe, 0x93, 0x89, 0xa3, 0x3c,
  0x41, 0x2b, 0xc7, 0x3d, 0x40, 0x98, 0x32, 0xbe, 0x39, 0x9f, 0x61, 0x3e,
  0x23, 0x99, 0xa6, 0x3d, 0x19, 0xbd, 0xd0, 0x3d, 0xa9, 0x7d, 0xa9, 0xbd,
  0xd0, 0x6b, 0x92, 0x3e, 0xed, 0x33, 0x85, 0x3d, 0x55, 0x70, 0xab, 0x3d,
  0x3a, 0x4f, 0xe9, 0x3c, 0x5b, 0x0f, 0x1c, 0x3e, 0x57, 0x81, 0x93, 0x3c,
  0x8c, 0xc5, 0x6b, 0xbe, 0xfa, 0x31, 0x8f, 0xbd, 0x65, 0xdf, 0x95, 0xbe,
  0x34, 0x49, 0x9e, 0x3d, 0x44, 0x00, 0x9e, 0xbd, 0x17, 0x1d, 0x45, 0xba,
  0xed, 0x06, 0x1f, 0x3e, 0x13, 0x81, 0x9d, 0x3d, 0x1a, 0xda, 0x70, 0x3d,
  0x62, 0xea, 0x6c, 0xbd, 0x58, 0x09, 0x2f, 0x3e, 0x32, 0x0e, 0x45, 0xbd,
  0x70, 0x2e, 0x3f, 0x3e, 0xce, 0x2e, 0xaf, 0x3d, 0x3f, 0x4f, 0xe8, 0xbc,
  0x3b, 0x43, 0x39, 0x3d, 0x55, 0x38, 0x55, 0xbc, 0x76, 0xe0, 0x5a, 0xbe,
  0xc6, 0x8c, 0x80, 0xbe, 0xd4, 0xf8, 0x1b, 0xba, 0xaa, 0x61, 0xed, 0x3c,
  0x6c, 0x49, 0x7f, 0x3e, 0xb3, 0x55, 0x8c, 0x3d, 0xb2, 0xf0, 0xcd, 0x3c,
  0x3f, 0x63, 0x09, 0xbf, 0xc1, 0x09, 0x36, 0xbc, 0xac, 0x6f, 0x89, 0x3d,
  0x42, 0x7b, 0x6b, 0x3e, 0xaf, 0x6b, 0x28, 0xbf, 0x1a, 0x3c, 0xff, 0x3d,
  0xb1, 0x86, 0x6c, 0x3d, 0x5f, 0x33, 0x88, 0x3d, 0xef, 0x3b, 0xeb, 0xbe,
  0xc2, 0xd2, 0x93, 0xbe, 0xc8, 0xf5, 0xde, 0xbe, 0xc2, 0xa6, 0xd9, 0x3d,
  0x2c, 0x3b, 0xf1, 0xbe, 0x52, 0xc9, 0x4f, 0xbe, 0x4a, 0x2a, 0x7b, 0x3e,
  0xbc, 0xf2, 0x48, 0xbe, 0x7e, 0x21, 0xd4, 0xbe, 0x5d, 0xed, 0xe8, 0x3d,
  0x72, 0xe9, 0xd1, 0xbe, 0xbb, 0xbb, 0xf9, 0xbe, 0xb1, 0xe9, 0xc2, 0xbe,
  0xc2, 0xc2, 0xf9, 0x3c, 0x3e, 0xf3, 0xaa, 0x3d, 0xc5, 0xae, 0x88, 0xbe,
  0xa6, 0x04, 0x7e, 0xbc, 0x67, 0xf2, 0x52, 0xbe, 0xa6, 0x13, 0x71, 0xbd,
  0x2a, 0x5a, 0xff, 0xbe, 0x95, 0x63, 0x58, 0x3d, 0x55, 0x60, 0x3f, 0x3c,
  0x07, 0x19, 0x6a, 0xbd, 0x9d, 0x33, 0x82, 0xbe, 0x03, 0xd2, 0x62, 0xbe,
  0x07, 0x6d, 0x02, 0x3e, 0xd0, 0xe7, 0x48, 0xbe, 0x69, 0x5e, 0x07, 0xbe,
  0x65, 0x64, 0xb6, 0xbc, 0xdb, 0x9a, 0x91, 0x3b, 0xcd, 0xf1, 0x38, 0xbd,
  0x39, 0xe2, 0x3a, 0xbe, 0x38, 0x71, 0x01, 0x3c, 0x48, 0x14, 0xbf, 0xbe,
  0x2c, 0x7d, 0x91, 0x3d, 0x4b, 0x53, 0x0d, 0x3e, 0x2a, 0x8f, 0xc8, 0xbd,
  0x33, 0xa9, 0x4b, 0xbd, 0x52, 0x0e, 0x6c, 0x3d, 0xa7, 0x8c, 0xaf, 0xbe,
  0x17, 0x38, 0x77, 0xbe, 0xdd, 0x38, 0x1e, 0x3d, 0xdc, 0x74, 0xb9, 0xbc,
  0x09, 0x70, 0x83, 0xbe, 0x05, 0x8f, 0xf1, 0xbd, 0xa5, 0x3c, 0xca, 0xbc,
  0x50, 0xd6, 0xf1, 0xbc, 0x2d, 0x50, 0xeb, 0xbd, 0x4e, 0x32, 0x83, 0xbe,
  0x98, 0x11, 0xd9, 0xbc, 0x3e, 0x22, 0x82, 0x3d, 0x57, 0x67, 0x04, 0x3e,
  0x36, 0x96, 0x67, 0xbd, 0x3c, 0xf1, 0x41, 0x3e, 0x93, 0x2f, 0xad, 0xbe,
  0xd5, 0x92, 0xb9, 0xbe, 0x31, 0x5f, 0xeb, 0xbd, 0xf6, 0xc4, 0xda, 0x3d,
  0x27, 0x97, 0x9d, 0xbd, 0x0a, 0xb7, 0x40, 0x3d, 0x2f, 0x5f, 0x0e, 0xbe,
  0xbf, 0x4d, 0x9e, 0xbd, 0xab, 0xec, 0x08, 0x3e, 0xdf, 0xe9, 0x1b, 0xbe,
  0xdb, 0xfe, 0x20, 0x3b, 0xcc, 0x0c, 0x0b, 0xbd, 0xab, 0xe4, 0x5e, 0x3d,
  0xcd, 0xf7, 0x88, 0x3c, 0x68, 0x31, 0x2d, 0xbe, 0x02, 0xc1, 0xe3, 0xbd,
  0x3f, 0x6d, 0x8d, 0x3e, 0xce, 0x49, 0x29, 0x3d, 0xf2, 0x42, 0x16, 0xbd,
  0x02, 0x7a, 0xb7, 0x3c, 0x59, 0x51, 0x1b, 0x3e, 0x3b, 0x2f, 0x91, 0x3d,
  0x9e, 0x02, 0x9c, 0x3d, 0x99, 0xd7, 0x65, 0xbd, 0x69, 0x97, 0xea, 0xbd,
  0xbe, 0x95, 0xe9, 0xbb, 0x0f, 0xf4, 0xa9, 0xbc, 0x24, 0x7d, 0x77, 0x3c,
  0xc2, 0x20, 0xb4, 0x3d, 0x20, 0xb9, 0x63, 0x3e, 0xad, 0xc3, 0xb3, 0x3d,
  0xc2, 0x9f, 0x05, 0xbe, 0x65, 0x7f, 0x6a, 0x3e, 0x7c, 0x06, 0xab, 0xbd,
  0xb1, 0x93, 0x27, 0xbe, 0xe6, 0xb8, 0x8e, 0xbd, 0xd7, 0x01, 0x4a, 0x3e,
  0x45, 0x20, 0x58, 0xbe, 0x83, 0xef, 0x9b, 0x3e, 0x32, 0xba, 0xbc, 0xbc,
  0x04, 0x15, 0xee, 0x3c, 0xad, 0xa8, 0x35, 0xbc, 0xba, 0x78, 0x41, 0x3c,
  0xf6, 0x16, 0xb3, 0xbe, 0x2b, 0x48, 0x0c, 0x3e, 0xe9, 0xab, 0x93, 0x3e,
  0x7a, 0x0e, 0x03, 0x3c, 0x31, 0x84, 0x7f, 0xbe, 0x59, 0x18, 0xc0, 0x3c,
  0x71, 0x41, 0x17, 0x39, 0xe8, 0x04, 0xda, 0xbe, 0x1b, 0x62, 0x9b, 0x3e,
  0x07, 0xed, 0x28, 0xbe, 0xe1, 0x5c, 0xeb, 0xbd, 0x1b, 0x0d, 0xaf, 0xbe,
  0x2a, 0x98, 0x42, 0xbe, 0xbe, 0x86, 0x30, 0x3e, 0xec, 0x2e, 0x8c, 0xbe,
  0xc2, 0x38, 0x81, 0xbe, 0xaf, 0x0a, 0x4d, 0xbe, 0x7e, 0x24, 0x0f, 0xbd,
  0xf4, 0xf1, 0xfa, 0xbe, 0xdc, 0xa0, 0xaf, 0xbd, 0x36, 0x77, 0x8c, 0x3c,
  0xda, 0xfb, 0xbe, 0xbc, 0xca, 0x9c, 0xa5, 0x3d, 0x97, 0x7e, 0xad, 0xbe,
  0x43, 0xdf, 0x02, 0x3e, 0xe7, 0x47, 0x2b, 0xbc, 0x4c, 0xd7, 0xc7, 0xbd,
  0x50, 0xa5, 0x7c, 0xbe, 0xe9, 0x0f, 0x22, 0xbc, 0x94, 0x20, 0xd7, 0xbd,
  0xdf, 0x88, 0x4d, 0xbe, 0xb2, 0x7d, 0x33, 0x3e, 0xf6, 0x1c, 0x1f, 0xbe,
  0xed, 0x3d, 0x37, 0x3d, 0x2c, 0x6c, 0x3d, 0x3e, 0x1a, 0xc9, 0x72, 0x3e,
  0xab, 0xc2, 0xc3, 0x3d, 0x8b, 0x8b, 0x1c, 0xbc, 0xec, 0x0a, 0x85, 0x3d,
  0x9d, 0x35, 0xf0, 0xbd, 0x68, 0x3c, 0x85, 0x3d, 0xc5, 0x04, 0x6b, 0xbd,
  0x43, 0xb9, 0x82, 0x3e, 0xaf, 0xb7, 0xfc, 0xbd, 0x7a, 0xd9, 0xf8, 0x3c,
  0x8f, 0x9f, 0xce, 0xbd, 0xe3, 0x92, 0x44, 0xbe, 0x56, 0x67, 0x98, 0xbd,
  0x4e, 0xb7, 0x08, 0xbc, 0xe4, 0x65, 0xe1, 0xbb, 0x60, 0x04, 0x18, 0x3e,
  0x8e, 0x49, 0xac, 0x3e, 0xe6, 0x7b, 0xd3, 0xbd, 0x5e, 0x23, 0x02, 0xbd,
  0x08, 0x8d, 0x05, 0xbc, 0x89, 0x5c, 0x5c, 0xbd, 0x0d, 0x02, 0xe1, 0x3c,
  0x4a, 0x85, 0x07, 0x3e, 0xe6, 0x89, 0xa2, 0x3d, 0x37, 0xa9, 0x1a, 0xbd,
  0x0b, 0x6c, 0xf1, 0x3c, 0xf3, 0x0e, 0x10, 0x3e, 0xd9, 0x9c, 0xd3, 0xbd,
  0x8a, 0xed, 0x44, 0x3d, 0xdb, 0x52, 0x55, 0xbd, 0xcd, 0xae, 0xb2, 0x3b,
  0x32, 0x39, 0xe8, 0x3d, 0x3a, 0xb2, 0x24, 0x3d, 0xea, 0xe2, 0x5b, 0x3d,
  0x71, 0x00, 0x66, 0xbe, 0xe8, 0x18, 0x62, 0x3d, 0xc2, 0x7d, 0xbc, 0x3d,
  0xc8, 0x8f, 0x3e, 0x3d, 0x1c, 0x60, 0xa1, 0x3c, 0xc6, 0xca, 0x5c, 0x3e,
  0x1f, 0x11, 0xb2, 0x3d, 0xdd, 0x2b, 0x63, 0x3d, 0x57, 0xf7, 0xc3, 0xbd,
  0xcc, 0x81, 0xc0, 0xbe, 0x93, 0x02, 0xf4, 0x3c, 0xb3, 0x0f, 0x16, 0xbe,
  0xa1, 0x0a, 0x8e, 0x3c, 0xca, 0xa0, 0x41, 0xbe, 0x67, 0x7b, 0x3c, 0x3d,
  0xc4, 0x0a, 0x1f, 0x3e, 0x05, 0xc6, 0x97, 0xbd, 0xb5, 0xa0, 0x72, 0x3d,
  0xff, 0xfa, 0xa8, 0xbd, 0x15, 0x73, 0x67, 0x3e, 0x00, 0x40, 0x32, 0x3d,
  0x44, 0xcb, 0x44, 0x3e, 0xd8, 0x53, 0xe6, 0x3d, 0x69, 0xad, 0xd9, 0x3d,
  0x98, 0xc3, 0x1f, 0xbe, 0x6c, 0x23, 0x28, 0xbe, 0xec, 0x8b, 0xfd, 0xbc,
  0x3b, 0x84, 0x61, 0xbd, 0x91, 0x22, 0x20, 0x3d, 0x4d, 0xdc, 0x92, 0x3d,
  0x13, 0x02, 0xdf, 0x3d, 0x34, 0xf6, 0x75, 0x3e, 0xd0, 0x3b, 0xc7, 0x3c,
  0x5b, 0xc5, 0x4a, 0x3c, 0xfe, 0x34, 0x70, 0xbd, 0xcc, 0xb3, 0xb6, 0x3d,
  0x32, 0xc1, 0x21, 0xbc, 0xfa, 0x21, 0x9a, 0x3d, 0xa0, 0x27, 0x0c, 0x3e,
  0x07, 0x58, 0x3e, 0xbc, 0x57, 0xed, 0xf7, 0xbc, 0xb3, 0x2e, 0x6e, 0x3d,
  0x9c, 0x17, 0xdf, 0xbc, 0x30, 0x9e, 0x04, 0xbe, 0xb2, 0x99, 0xb9, 0x3d,
  0x6a, 0x78, 0x35, 0x3e, 0x30, 0x8b, 0xf8, 0x3d, 0x98, 0x51, 0x9c, 0x3d,
  0xce, 0xd3, 0xfa, 0xbb, 0x88, 0xf0, 0xde, 0x3c, 0xa1, 0x0f, 0xa3, 0x3e,
  0xb4, 0xcd, 0x8d, 0xbb, 0x94, 0xd3, 0xe9, 0x3c, 0x57, 0xe5, 0x3b, 0xbe,
  0x8f, 0x1c, 0x80, 0x3e, 0xb6, 0x18, 0x7d, 0x3b, 0x6e, 0x68, 0x39, 0x3e,
  0x47, 0x98, 0xce, 0x3d, 0x56, 0x9b, 0x29, 0xbe, 0x1f, 0xfa, 0x55, 0xbd,
  0xce, 0x0c, 0x79, 0xbe, 0xe5, 0xd0, 0xe3, 0x3d, 0x37, 0x99, 0x5f, 0xbe,
  0xb1, 0x5d, 0xa8, 0xbe, 0x75, 0x4f, 0x3d, 0x3e, 0x64, 0x32, 0xa0, 0xbb,
  0xc9, 0x70, 0x12, 0x3e, 0x99, 0x3e, 0x7f, 0xba, 0x73, 0x5e, 0x99, 0xbb,
  0xa3, 0x6f, 0x6e, 0xbd, 0x62, 0x58, 0x87, 0xbd, 0x64, 0x0a, 0x36, 0x3d,
  0x89, 0x9e, 0x23, 0x3e, 0x53, 0x3d, 0x16, 0x3d, 0x61, 0x76, 0xb0, 0xbe,
  0x4e, 0x05, 0x3f, 0xbe, 0x05, 0x20, 0xd1, 0xbe, 0x7f, 0xb7, 0xd1, 0xbd,
  0x18, 0xa5, 0x1a, 0x3d, 0x4c, 0x50, 0x9b, 0xbe, 0x99, 0xa4, 0x8a, 0x3e,
  0xd7, 0x5a, 0x85, 0xbe, 0xb0, 0xbe, 0xce, 0xbd, 0xb6, 0x98, 0x08, 0xbe,
  0x4e, 0x49, 0x57, 0x3d, 0xd4, 0x88, 0xce, 0x3d, 0xe7, 0x67, 0xb0, 0xbd,
  0x0c, 0x9d, 0x8a, 0x3d, 0xe1, 0x4d, 0x9d, 0x3d, 0x6a, 0xc6, 0x7d, 0xbc,
  0xce, 0x63, 0x02, 0xbe, 0x5b, 0xa6, 0x10, 0x3e, 0xdf, 0xa3, 0x5d, 0xbe,
  0x00, 0x79, 0xfa, 0xbd, 0xb4, 0x85, 0x83, 0xbd, 0x69, 0x12, 0xba, 0xbe,
  0xeb, 0x74, 0x13, 0x3e, 0x96, 0x16, 0x83, 0xbe, 0xdb, 0x60, 0x5d, 0x3a,
  0x4b, 0x72, 0x2d, 0xbe, 0x53, 0xe2, 0xdd, 0x3d, 0xe2, 0x64, 0x3d, 0x3e,
  0x89, 0xc3, 0xa4, 0xbd, 0xbc, 0x5b, 0xa3, 0x3c, 0x68, 0xd2, 0x94, 0xbd,
  0x2e, 0xbd, 0x8f, 0x3d, 0x01, 0xad, 0xd1, 0xbe, 0x50, 0xac, 0xbc, 0xbb,
  0x0f, 0xbc, 0xc3, 0xbe, 0x66, 0x7f, 0x13, 0xbe, 0x14, 0x6c, 0x6d, 0xbe,
  0x62, 0x9f, 0x4b, 0xbe, 0x42, 0x4a, 0xc3, 0x3e, 0x60, 0x44, 0xae, 0xbd,
  0xcc, 0x69, 0x42, 0x3e, 0x56, 0x43, 0xbc, 0xbc, 0x3b, 0xfc, 0xf9, 0x3d,
  0xb5, 0xd7, 0x12, 0x3e, 0x9c, 0xff, 0x2d, 0x3d, 0x00, 0xa6, 0xed, 0x3c,
  0x7f, 0x0a, 0x62, 0x3e, 0x2b, 0xc9, 0x15, 0x3d, 0xfc, 0x98, 0xe9, 0xbe,
  0x65, 0x45, 0xc4, 0xbc, 0x55, 0xf7, 0xab, 0xbe, 0x42, 0x26, 0x10, 0xbe,
  0xfe, 0x1e, 0xb1, 0xbd, 0x77, 0x62, 0x9c, 0xbe, 0xb8, 0x93, 0x44, 0x3e,
  0xf2, 0x92, 0x28, 0x3d, 0x44, 0x2f, 0x9b, 0x3e, 0xc6, 0xdf, 0x16, 0xbe,
  0xcc, 0x5f, 0x29, 0x3e, 0x46, 0xb0, 0xab, 0x3e, 0x3c, 0xae, 0x0a, 0xbe,
  0x66, 0x08, 0x23, 0xbc, 0xeb, 0xc3, 0x39, 0xbb, 0x5e, 0x11, 0xe8, 0x3d,
  0xa5, 0x06, 0xd8, 0xbe, 0xe9, 0xc7, 0x3c, 0xbe, 0x25, 0xd8, 0x01, 0xbf,
  0x93, 0xd7, 0x1e, 0x3c, 0x65, 0xf0, 0x02, 0x3e, 0x0a, 0xe0, 0x8d, 0xbe,
  0x11, 0xc9, 0x04, 0xbd, 0xd6, 0xa9, 0x80, 0xbe, 0xf2, 0xb0, 0x8e, 0xbd,
  0xdc, 0x3a, 0xb6, 0xbb, 0xae, 0xc9, 0x61, 0xbe, 0xf6, 0x7e, 0x6f, 0xbd,
  0xdc, 0x5e, 0xba, 0x3c, 0x22, 0x39, 0xa9, 0x3c, 0xbc, 0x65, 0x7f, 0x3d,
  0xbb, 0xb6, 0x73, 0x3d, 0x7d, 0x15, 0xcd, 0xbd, 0xee, 0x73, 0x81, 0xbe,
  0x32, 0x92, 0x19, 0xbf, 0x82, 0x3e, 0x2d, 0xbe, 0x08, 0xcc, 0xba, 0xbb,
  0xf1, 0x4c, 0xf5, 0x3d, 0xbe, 0x2d, 0x84, 0x3d, 0xe2, 0x05, 0x5f, 0x3d,
  0xc5, 0xd8, 0x12, 0x3d, 0xb3, 0x12, 0x8b, 0x3d, 0xf7, 0x4a, 0x24, 0x3d,
  0xeb, 0x38, 0x22, 0x3f, 0x27, 0x64, 0xbc, 0xbe, 0x26, 0x7b, 0x02, 0x3e,
  0x0e, 0xee, 0xb5, 0x3c, 0x1b, 0xcd, 0x79, 0x3c, 0x8c, 0x5e, 0x8d, 0xbd,
  0xb7, 0x43, 0xc7, 0xbd, 0x1a, 0x95, 0xb5, 0x3d, 0x3a, 0x63, 0x33, 0x3e,
  0x7b, 0x44, 0x53, 0x3e, 0x65, 0x31, 0xeb, 0x3f, 0xf3, 0x53, 0x89, 0xbe,
  0x9c, 0x94, 0xac, 0x3d, 0x0a, 0xda, 0xbc, 0xbd, 0x80, 0x2c, 0xc7, 0xbd,
  0x14, 0x43, 0x88, 0xbe, 0x79, 0x9a, 0x9b, 0xbe, 0x85, 0xc7, 0x40, 0xbe,
  0xd3, 0x1a, 0x5b, 0x3d, 0x83, 0x31, 0xb6, 0x3d, 0x49, 0x23, 0x25, 0xbe,
  0xd8, 0xdc, 0x2e, 0xbe, 0x9b, 0x8d, 0x82, 0xbc, 0xf3, 0xb5, 0x09, 0xbe,
  0x00, 0xdd, 0xda, 0xbc, 0xb7, 0xa2, 0x9d, 0x3e, 0x3f, 0x99, 0xe0, 0x3f,
  0x17, 0xb6, 0x78, 0xbc, 0x38, 0xfb, 0xe0, 0x3d, 0xdc, 0x71, 0xaf, 0xbd,
  0xc3, 0x2e, 0x02, 0xbd, 0xfb, 0xe0, 0xc5, 0xbb, 0xf7, 0x21, 0x59, 0xbe,
  0x62, 0x0b, 0x08, 0x3d, 0x34, 0xc4, 0xa0, 0xbd, 0x15, 0x11, 0xbb, 0x3d,
  0xeb, 0x38, 0xd4, 0xbd, 0x30, 0xf0, 0xeb, 0x3d, 0xa2, 0x99, 0xc8, 0x3d,
  0x56, 0xe7, 0xf5, 0xbd, 0x93, 0x6d, 0x75, 0xbd, 0xed, 0x4e, 0x56, 0x3e,
  0xdb, 0x50, 0xb4, 0x3f, 0xd9, 0x8f, 0xe2, 0xbc, 0xeb, 0x6a, 0x12, 0x3e,
  0x2d, 0xcf, 0xbf, 0xbd, 0x11, 0x2d, 0x1a, 0x3e, 0x73, 0x2c, 0x7a, 0xbd,
  0xea, 0x48, 0xb4, 0xbc, 0x6c, 0x92, 0x07, 0x3e, 0x5a, 0x39, 0xf4, 0xbd,
  0xde, 0xec, 0x50, 0xbb, 0x07, 0xbb, 0x58, 0xbe, 0x41, 0xbd, 0xa0, 0x3d,
  0x95, 0xed, 0x00, 0xbd, 0x0d, 0x07, 0x3c, 0xbc, 0xaa, 0x58, 0x59, 0x3c,
  0x8d, 0x2d, 0x4c, 0xbd, 0xbf, 0xde, 0xbd, 0x3f, 0x70, 0x9b, 0xe9, 0xbc,
  0x14, 0x6a, 0x38, 0x3e, 0xbd, 0x8e, 0x20, 0x3d, 0x0f, 0x5e, 0xda, 0x3d,
  0xdd, 0x4c, 0x9a, 0x3d, 0x67, 0x95, 0x88, 0xbe, 0xcd, 0xf1, 0xc6, 0x3c,
  0xfa, 0x44, 0x80, 0xbd, 0xf4, 0x79, 0x30, 0xbe, 0x98, 0x20, 0xea, 0xbd,
  0x52, 0x90, 0x70, 0xbd, 0xd2, 0xd8, 0x75, 0xbd, 0x79, 0x55, 0xda, 0xbd,
  0x43, 0xcd, 0xa7, 0xbc, 0x8e, 0x72, 0x17, 0x3d, 0x9c, 0xfb, 0xe4, 0x3f,
  0xe3, 0x1f, 0x42, 0x3d, 0xb3, 0x14, 0x46, 0x3e, 0x00, 0x4f, 0xa3, 0x3d,
  0x07, 0xb7, 0x85, 0x3d, 0x8c, 0x73, 0x00, 0x3e, 0x52, 0x7a, 0x87, 0xbe,
  0x17, 0x4e, 0x8e, 0xbd, 0xba, 0x36, 0xae, 0x3d, 0xfe, 0xbb, 0xb7, 0x3b,
  0xb5, 0xcc, 0xc8, 0xbc, 0xb0, 0xcd, 0x0c, 0xbc, 0xca, 0x6a, 0xc7, 0xbd,
  0x6a, 0x94, 0x83, 0xbd, 0x70, 0x8f, 0xa3, 0xbc, 0x11, 0x09, 0x2e, 0x3e,
  0xc7, 0xbd, 0xea, 0x3f, 0x1e, 0xe5, 0xe7, 0xbd, 0x4c, 0x91, 0xd6, 0x3d,
  0x21, 0xf7, 0xea, 0x3d, 0xa1, 0xb7, 0x6e, 0x3d, 0x94, 0x90, 0x24, 0x3e,
  0xfb, 0xd8, 0x66, 0xbd, 0x75, 0xf3, 0x2f, 0xbd, 0x84, 0x99, 0x81, 0xbc,
  0x3f, 0x7f, 0x7f, 0xbc, 0x84, 0x71, 0x09, 0xbd, 0x0d, 0xaf, 0x58, 0x3c,
  0xc1, 0xe6, 0x71, 0xbd, 0xb2, 0x37, 0xf3, 0xbd, 0x2c, 0xa8, 0x35, 0x3d,
  0x3b, 0x54, 0x3e, 0x3e, 0xb6, 0xd3, 0x6c, 0x3f, 0xe0, 0x4f, 0x32, 0xbe,
  0x98, 0xff, 0xca, 0x3c, 0xa7, 0x1e, 0x6c, 0x3e, 0x09, 0xee, 0xcc, 0x3d,
  0x92, 0xbc, 0x01, 0xbd, 0x1e, 0x6a, 0x00, 0xbe, 0xe5, 0x41, 0x63, 0xbc,
  0x9c, 0x63, 0x07, 0xbc, 0xd8, 0xeb, 0xff, 0xbc, 0x02, 0x74, 0xeb, 0x3c,
  0x5b, 0x95, 0x09, 0x3d, 0x6e, 0x95, 0x80, 0x3e, 0xed, 0x91, 0xcf, 0x3c,
  0xf7, 0xac, 0x5a, 0x3d, 0xd5, 0x9a, 0xeb, 0x3c, 0xff, 0xaf, 0x28, 0xbe,
  0x30, 0x39, 0x37, 0x3d, 0x70, 0x6f, 0x21, 0x3e, 0xa4, 0x76, 0xb6, 0x3e,
  0xb3, 0x70, 0xf8, 0x3d, 0x49, 0xee, 0xf9, 0xbc, 0xfa, 0x8d, 0xd4, 0x3e,
  0x0f, 0xd0, 0x59, 0xbd, 0xfc, 0x5c, 0x77, 0xbc, 0xcd, 0x5e, 0x88, 0x3e,
  0x47, 0x30, 0xa1, 0xbc, 0x40, 0x67, 0x2b, 0x3d, 0x23, 0x83, 0x83, 0x3e,
  0x66, 0x8a, 0xda, 0x3c, 0x91, 0x47, 0x24, 0x3d, 0xfb, 0x0d, 0x6d, 0x3d,
  0xec, 0x34, 0xb5, 0xbd, 0xb6, 0xdb, 0x3a, 0x3e, 0xfd, 0x82, 0xd1, 0x3d,
  0xe8, 0x33, 0x98, 0x3e, 0x67, 0x6f, 0x5f, 0x3d, 0xb4, 0x22, 0x2c, 0x3e,
  0x60, 0x46, 0xfe, 0xbd, 0x8f, 0x97, 0x7f, 0xbd, 0x37, 0x93, 0x06, 0x3d,
  0x77, 0x7e, 0xfd, 0xbd, 0xbf, 0x2c, 0x94, 0xbe, 0x52, 0xfd, 0xae, 0x3d,
  0xc1, 0x90, 0xe4, 0x3d, 0xba, 0xb0, 0xc8, 0x3c, 0x3b, 0x89, 0x68, 0xbd,
  0x59, 0x29, 0x53, 0x3e, 0x2e, 0xa4, 0xad, 0xbc, 0xf9, 0x96, 0xf4, 0x3d,
  0x50, 0x73, 0x1c, 0x3e, 0x57, 0x43, 0x7d, 0x3e, 0xd4, 0x82, 0xa7, 0x3c,
  0x16, 0x53, 0x6f, 0xbd, 0x29, 0xf2, 0xa5, 0xbd, 0x22, 0xdc, 0x03, 0xbe,
  0x46, 0x93, 0xcd, 0x3b, 0x98, 0xc3, 0x1f, 0xbe, 0xea, 0x84, 0x18, 0xbe,
  0xdc, 0x3e, 0x6b, 0x3e, 0x5a, 0xff, 0x94, 0x3e, 0x59, 0xd3, 0x21, 0xbd,
  0x53, 0x37, 0x18, 0xbd, 0xf1, 0x32, 0x2f, 0x3e, 0x8c, 0xe5, 0x1e, 0x3e,
  0x71, 0xfe, 0xb5, 0x3d, 0x5f, 0x08, 0x1b, 0x3d, 0x94, 0x1f, 0x19, 0x3e,
  0x4a, 0x01, 0x0e, 0x3e, 0x0c, 0x6a, 0x45, 0x3c, 0xbc, 0x3c, 0x98, 0xbd,
  0x2a, 0xeb, 0x57, 0xbe, 0xdf, 0xd0, 0xf5, 0x3a, 0x50, 0x51, 0xdf, 0xbd,
  0xba, 0x51, 0x32, 0xba, 0xe1, 0xd7, 0x3e, 0x3e, 0x4f, 0x44, 0x80, 0x3e,
  0xfa, 0x95, 0xa0, 0xbc, 0x41, 0xe2, 0xd3, 0xbc, 0xb4, 0xb3, 0xa1, 0x3d,
  0xdb, 0xf3, 0x11, 0x3e, 0xa9, 0xb4, 0x55, 0x3e, 0xc7, 0x3c, 0x0f, 0x3e,
  0x4b, 0xda, 0x39, 0x3d, 0x58, 0xcf, 0x7d, 0x3e, 0xd0, 0x1b, 0x17, 0xbe,
  0xc9, 0xb5, 0x2a, 0xbe, 0x97, 0xb5, 0x6d, 0xbe, 0xbf, 0xcf, 0xaf, 0x3d,
  0x56, 0x7e, 0x13, 0x3e, 0xaa, 0xa8, 0x4a, 0xbe, 0xa4, 0xcc, 0x51, 0x3d,
  0x3a, 0x88, 0x83, 0x3e, 0x29, 0x96, 0xb9, 0x3a, 0x0c, 0xdc, 0x92, 0xbe,
  0xa1, 0x01, 0x4e, 0x3e, 0xc0, 0xc3, 0xae, 0x3b, 0x3a, 0x21, 0xe4, 0x3c,
  0xe9, 0x20, 0x38, 0x3e, 0xcd, 0xa5, 0x13, 0xbf, 0x4d, 0xa0, 0x95, 0x3d,
  0xdc, 0x7b, 0x9a, 0xbe, 0xbe, 0x46, 0x2d, 0xbf, 0x6d, 0xff, 0x51, 0xbd,
  0x80, 0x5b, 0x0d, 0xbd, 0x45, 0x4b, 0x16, 0xbc, 0x2e, 0xbd, 0x8e, 0xbe,
  0xec, 0xba, 0xee, 0xbe, 0x35, 0xa2, 0x72, 0xbd, 0xfb, 0xc4, 0x76, 0xbb,
  0xb4, 0x5d, 0x8d, 0xbe, 0x64, 0x64, 0xaa, 0x3c, 0x9a, 0x2d, 0xe9, 0xbc,
  0x16, 0x41, 0x80, 0xbe, 0x92, 0x32, 0xac, 0xbc, 0x18, 0x28, 0x2c, 0x3d,
  0xa4, 0x98, 0xb1, 0x3d, 0x01, 0x8b, 0x85, 0xbe, 0x2b, 0xc5, 0x0a, 0xbe,
  0xcf, 0x93, 0x59, 0xbe, 0xff, 0xce, 0x1b, 0x3e, 0x0b, 0x1d, 0xc6, 0xbd,
  0xdf, 0x81, 0x6e, 0xbe, 0x1c, 0xe6, 0x83, 0xbe, 0x74, 0x8b, 0xec, 0x3c,
  0xdc, 0xc9, 0x73, 0xbd, 0xaa, 0x92, 0xb2, 0xbe, 0x30, 0x81, 0x4a, 0x3c,
  0x02, 0x12, 0x08, 0x40, 0x1c, 0x8e, 0x37, 0x3c, 0x43, 0xb6, 0x13, 0xbd,
  0xd7, 0x34, 0x06, 0xbe, 0x29, 0x1a, 0x01, 0xbf, 0xe4, 0x56, 0xb0, 0x3d,
  0x61, 0x65, 0x03, 0xbe, 0x79, 0x19, 0x16, 0x3d, 0xc6, 0xe1, 0x96, 0xbd,
  0xd8, 0x57, 0xa3, 0x3c, 0x87, 0x9f, 0x01, 0xbe, 0x0b, 0x5f, 0x3f, 0xbe,
  0x09, 0xca, 0x79, 0x3d, 0xcd, 0xc6, 0x9d, 0xbe, 0x78, 0x38, 0x6b, 0xbd,
  0x79, 0x79, 0x23, 0x3e, 0x03, 0x83, 0xf7, 0x3f, 0xad, 0x76, 0x1a, 0xbe,
  0xeb, 0xa6, 0x3f, 0x3e, 0xb2, 0x19, 0x45, 0x3e, 0x2d, 0x8b, 0xd5, 0x3d,
  0x1b, 0x56, 0xfd, 0x3c, 0x6e, 0x90, 0xf7, 0xbd, 0xff, 0xe7, 0x39, 0x3e,
  0xc6, 0x58, 0x86, 0xbd, 0xb1, 0xc1, 0xb7, 0xbd, 0x18, 0x0c, 0xde, 0x3c,
  0xab, 0xf7, 0x99, 0x3d, 0x63, 0x2f, 0x02, 0x3d, 0xac, 0x52, 0x2e, 0xbe,
  0x6d, 0xbc, 0xe7, 0xbd, 0xf1, 0x96, 0x84, 0x3e, 0xc8, 0x7a, 0x02, 0x40,
  0xcc, 0xf4, 0x7d, 0x3c, 0x19, 0xb7, 0x0a, 0x3e, 0xfa, 0x17, 0x68, 0x3d,
  0x8f, 0xcc, 0xfa, 0x3d, 0x46, 0x3c, 0xb1, 0x3c, 0x58, 0xd1, 0xcf, 0xbb,
  0xd7, 0x63, 0xed, 0xbb, 0x96, 0x52, 0xbc, 0x3d, 0x36, 0x32, 0x07, 0xbd,
  0x5a, 0x41, 0xa1, 0xbd, 0xb3, 0x00, 0x01, 0x3d, 0xe1, 0x1c, 0xc2, 0x3d,
  0x3b, 0x48, 0x36, 0x3d, 0x7d, 0x81, 0xd3, 0xbd, 0xd2, 0x0e, 0x33, 0xbd,
  0xc7, 0x65, 0xf1, 0x3f, 0xf0, 0x55, 0x2c, 0x3d, 0x1e, 0x69, 0xe2, 0xbd,
  0xdf, 0xe5, 0x00, 0xbe, 0xbc, 0x9a, 0xb8, 0xbd, 0xdd, 0x5b, 0x27, 0x3d,
  0x3c, 0x81, 0x3a, 0xbd, 0xd5, 0x47, 0x00, 0xbd, 0xc7, 0xb7, 0x1f, 0x3c,
  0x21, 0x4d, 0x07, 0xbe, 0x20, 0x98, 0xb9, 0xbc, 0x3a, 0x06, 0x66, 0x3d,
  0x64, 0xc2, 0x19, 0xbd, 0xc5, 0x2e, 0x05, 0x3d, 0x85, 0x70, 0x53, 0x3d,
  0xd2, 0x40, 0x85, 0x3e, 0x61, 0xa4, 0xf4, 0x3f, 0x8f, 0xaa, 0x09, 0xbe,
  0x1f, 0xfa, 0x9f, 0x3d, 0xa7, 0x0c, 0xa3, 0x3d, 0x3b, 0x86, 0xe0, 0xbe,
  0x8b, 0xc9, 0xc7, 0x3d, 0x54, 0x56, 0x6f, 0xbd, 0x9e, 0xa7, 0x26, 0x3e,
  0xb7, 0xb0, 0x53, 0xbe, 0xb6, 0x8e, 0x11, 0x3e, 0x7c, 0x9c, 0xa2, 0xbd,
  0x36, 0xe5, 0x1d, 0xbe, 0x7c, 0x73, 0xe1, 0x3a, 0xa1, 0xa0, 0x9e, 0xbe,
  0x84, 0x40, 0x3e, 0xbe, 0xd3, 0xf5, 0xac, 0x3e, 0x09, 0x88, 0x0c, 0x40,
  0x86, 0xbb, 0xa4, 0xbe, 0xf7, 0xd6, 0x5a, 0x3e, 0x68, 0x82, 0x9b, 0x3d,
  0xea, 0x72, 0xbb, 0x3d, 0xac, 0x71, 0x59, 0x3b, 0x44, 0xf6, 0x90, 0xbd,
  0x23, 0xf6, 0x33, 0x3e, 0xdc, 0x2e, 0xeb, 0xbb, 0x5d, 0x5f, 0x25, 0x3e,
  0x29, 0x5c, 0x13, 0x3c, 0x33, 0x83, 0xf2, 0x3d, 0x87, 0xd8, 0x6e, 0x3d,
  0xc8, 0x83, 0x38, 0xbd, 0xfd, 0xf8, 0x3e, 0xbe, 0x1a, 0x5b, 0xa7, 0xbe,
  0xd0, 0x8b, 0xc3, 0x3f, 0xc8, 0x36, 0xcd, 0x3d, 0xfe, 0x18, 0x53, 0xbd,
  0x93, 0x92, 0x4b, 0xbe, 0x03, 0x33, 0x9e, 0xbd, 0xf0, 0xad, 0x40, 0xbe,
  0x0a, 0x9b, 0x9b, 0x3e, 0xc3, 0x07, 0x7b, 0x3e, 0x10, 0x58, 0x76, 0x3c,
  0xf3, 0x1c, 0x4a, 0xbc, 0x51, 0xdc, 0xbf, 0xbd, 0x53, 0xe2, 0xaa, 0x3d,
  0x5f, 0xcc, 0x95, 0xbe, 0xc1, 0x91, 0xfb, 0x3d, 0x5b, 0xe7, 0x48, 0xbd,
  0x7d, 0xf6, 0x98, 0xbe, 0xf8, 0x0d, 0xce, 0x3f, 0xa7, 0xe5, 0x1c, 0xbe,
  0x14, 0xe7, 0x08, 0x3e, 0x4b, 0xda, 0xb5, 0xbd, 0x76, 0xd0, 0xcd, 0xbd,
  0x0f, 0x4c, 0x42, 0x3d, 0x12, 0x75, 0xf7, 0x3d, 0xfa, 0xc4, 0x9c, 0x3e,
  0x12, 0x8b, 0x46, 0x3d, 0x04, 0x71, 0x14, 0x3d, 0x4d, 0xd3, 0x21, 0x3e,
  0x9c, 0x86, 0x17, 0xbf, 0x7f, 0x34, 0xc1, 0xbe, 0x7b, 0x3d, 0x87, 0xbd,
  0xa2, 0x41, 0xa6, 0xbe, 0x81, 0x57, 0x75, 0x3d, 0x1c, 0x71, 0xff, 0x3f,
  0x0b, 0x07, 0x63, 0x3d, 0x48, 0xb2, 0x8c, 0x3e, 0xd2, 0x5c, 0xd1, 0xbb,
  0x92, 0xa7, 0x46, 0x3d, 0x74, 0x7f, 0x32, 0x3e, 0x7f, 0xb9, 0xc2, 0xbd,
  0xd7, 0x54, 0x97, 0x3e, 0xfd, 0xe8, 0x69, 0xbd, 0x9c, 0x1c, 0x92, 0x3d,
  0x2a, 0x9a, 0x89, 0x3e, 0x6f, 0xad, 0x66, 0xbe, 0x88, 0xf1, 0x08, 0xbe,
  0x45, 0x45, 0x44, 0xbc, 0xfe, 0x43, 0x2f, 0xbe, 0x13, 0xba, 0x3c, 0x3e,
  0xd0, 0x23, 0xf1, 0x3f, 0x9a, 0x3c, 0x14, 0x3e, 0x2f, 0x71, 0x13, 0x3e,
  0x58, 0x9e, 0x8b, 0xbe, 0xb7, 0x7e, 0xab, 0xbd, 0x4e, 0x4e, 0x3d, 0x3d,
  0xcc, 0x6c, 0x4d, 0x3e, 0x2e, 0xe2, 0x72, 0x3e, 0x23, 0x56, 0xc1, 0x3d,
  0x88, 0xad, 0xc4, 0xbd, 0x3d, 0x51, 0x1a, 0x3e, 0x00, 0xbe, 0x80, 0xbe,
  0x14, 0x2f, 0x95, 0xbe, 0xde, 0x09, 0x10, 0x3d, 0xff, 0x9a, 0x09, 0xbe,
  0x96, 0x1b, 0xbd, 0xbd, 0xf0, 0xca, 0x0e, 0x40, 0x8f, 0x97, 0xb3, 0xbd,
  0xa0, 0xfd, 0x0a, 0x3e, 0x4f, 0x04, 0x6f, 0x3d, 0xa8, 0x27, 0x09, 0x3c,
  0x94, 0xaa, 0xde, 0xbe, 0x4b, 0xe3, 0x9c, 0x3c, 0x40, 0x0e, 0x74, 0x3e,
  0x8b, 0xdb, 0x06, 0x3e, 0x11, 0xa0, 0x1f, 0xbe, 0x41, 0x6c, 0x1d, 0x3e,
  0xfe, 0x3d, 0x06, 0xbf, 0x6b, 0x22, 0x08, 0xbf, 0x40, 0x25, 0xac, 0xbc,
  0x67, 0xf1, 0x99, 0xbe, 0x53, 0x04, 0x33, 0xbd, 0x5c, 0x57, 0x01, 0x40,
  0x19, 0x2d, 0x87, 0xbf, 0x85, 0x52, 0x3c, 0x3c, 0x01, 0x42, 0x9b, 0xbc,
  0x15, 0xd2, 0xc5, 0x3c, 0x61, 0x68, 0xc5, 0xbe, 0x9e, 0x0d, 0x73, 0x3e,
  0xd0, 0x60, 0x91, 0x3e, 0xfe, 0x32, 0x08, 0x3e, 0x23, 0xa0, 0x27, 0xbe,
  0x84, 0xdd, 0x7d, 0xbd, 0xc5, 0x96, 0xf1, 0xbe, 0xec, 0xe4, 0x32, 0xbf,
  0x94, 0xfc, 0x73, 0x3a, 0xd1, 0xe9, 0x32, 0xbe, 0xc9, 0x9d, 0x26, 0x3e,
  0x64, 0x01, 0x15, 0x40, 0xda, 0xe9, 0x41, 0xbf, 0xbe, 0xa7, 0x38, 0x3c,
  0x03, 0xa9, 0x78, 0x3c, 0xbf, 0x4c, 0x83, 0xbd, 0x46, 0x5c, 0x09, 0xbf,
  0x24, 0xb1, 0xb1, 0x3c, 0x23, 0xc5, 0x91, 0x3e, 0x75, 0x91, 0x8f, 0x3d,
  0xbb, 0xd2, 0xac, 0x3d, 0xf0, 0x59, 0xe5, 0xbc, 0xdd, 0x7b, 0x9a, 0xbd,
  0x25, 0x5a, 0x5c, 0xbe, 0x2d, 0xd9, 0x5f, 0xbd, 0xc3, 0x73, 0x27, 0xbd,
  0xb5, 0x3c, 0xc2, 0x3c, 0xdd, 0xef, 0x6e, 0x3f, 0x3b, 0x5e, 0xa5, 0xbd,
  0x05, 0x4c, 0xfb, 0xbd, 0x1f, 0x89, 0x1c, 0x3d, 0xdd, 0x49, 0x2c, 0x3d,
  0x4b, 0x04, 0x0d, 0xbe, 0x5f, 0xa6, 0x05, 0xbd, 0xd0, 0x1f, 0x0c, 0xbd,
  0x41, 0xd3, 0x3d, 0x3c, 0xab, 0x40, 0x5c, 0xbe, 0xdd, 0xfc, 0xdc, 0xbe,
  0x36, 0x74, 0x7a, 0xbe, 0x8c, 0x3f, 0xa2, 0xbe, 0xf1, 0x90, 0x0a, 0x3e,
  0x6d, 0xfa, 0x96, 0xbe, 0xc5, 0xdb, 0x95, 0x3e, 0xc4, 0x02, 0x99, 0x3f,
  0xd9, 0xd9, 0x3b, 0x3e, 0x92, 0x65, 0x32, 0x3e, 0x19, 0x03, 0xda, 0x3d,
  0xa5, 0x95, 0x11, 0x3e, 0x98, 0xa4, 0xe1, 0xbd, 0xfe, 0x23, 0x1b, 0x3e,
  0x64, 0x20, 0x56, 0x3e, 0x82, 0x30, 0xd3, 0xbd, 0x2a, 0x25, 0x39, 0xbe,
  0x61, 0xa1, 0x1f, 0xbd, 0x23, 0xbd, 0xf5, 0xbd, 0xd0, 0x75, 0xa5, 0x3d,
  0xba, 0x47, 0x77, 0xbe, 0x85, 0x9a, 0x81, 0xbe, 0x78, 0xc7, 0x33, 0x3d,
  0xb8, 0xb7, 0x78, 0x3f, 0x34, 0x9e, 0x30, 0x3d, 0x4c, 0x2c, 0x2f, 0xbe,
  0x19, 0x91, 0x95, 0x3e, 0x8b, 0xaf, 0x3a, 0x3e, 0x92, 0x91, 0x98, 0xbc,
  0x5a, 0x6e, 0xad, 0x3d, 0xfa, 0xb2, 0xdf, 0xbd, 0x10, 0xf8, 0x70, 0x3e,
  0x9d, 0x7a, 0x2d, 0x3d, 0x9d, 0xaf, 0x9e, 0x3d, 0x0c, 0x22, 0x46, 0xbe,
  0x75, 0xd8, 0xac, 0x3d, 0x56, 0x71, 0xa1, 0xbd, 0x43, 0x47, 0x8c, 0xbe,
  0x93, 0x07, 0x95, 0x3e, 0xd8, 0xed, 0xa2, 0x3f, 0x84, 0x3e, 0x03, 0x3c,
  0x8e, 0x4e, 0xcf, 0x3c, 0x92, 0x95, 0x80, 0x3e, 0x0d, 0xb5, 0xaa, 0x3d,
  0x0c, 0x12, 0x57, 0x3d, 0x4e, 0x92, 0x8b, 0xbe, 0xb9, 0xe6, 0xf7, 0x3d,
  0x4a, 0xa7, 0x98, 0x3d, 0x8e, 0x52, 0x8d, 0x3d, 0xae, 0x33, 0xf4, 0x3b,
  0x43, 0x54, 0x35, 0xbe, 0xfe, 0xd7, 0x35, 0x3e, 0x9d, 0xe7, 0xaa, 0x3a,
  0xa0, 0x76, 0x87, 0xbe, 0xa1, 0x34, 0xae, 0x3e, 0xb9, 0xe7, 0x88, 0x3f,
  0x47, 0xbb, 0x6b, 0xbe, 0xaa, 0x52, 0x50, 0x3e, 0x3b, 0x0d, 0x38, 0x3e,
  0x96, 0x8e, 0xa3, 0x3c, 0x57, 0xb6, 0xdf, 0xbd, 0x3b, 0x5e, 0x86, 0xbe,
  0x1e, 0x32, 0x9d, 0x3d, 0xda, 0xe6, 0x83, 0x3d, 0x72, 0x0f, 0x5a, 0xbe,
  0xae, 0x2e, 0x95, 0xbd, 0xf9, 0x8a, 0x7a, 0xbc, 0x5f, 0xbf, 0x6d, 0xbd,
  0x2f, 0xff, 0x83, 0xbe, 0x42, 0xfb, 0xa2, 0xbe, 0x06, 0x26, 0x8d, 0x3e,
  0xe4, 0x4f, 0x84, 0x3f, 0x15, 0x2a, 0x62, 0xbe, 0x22, 0xf3, 0x92, 0x3c,
  0x66, 0x46, 0x91, 0xbd, 0x7a, 0x24, 0x20, 0xbe, 0x50, 0x27, 0x84, 0xbe,
  0xf9, 0xf1, 0xfd, 0xbd, 0xb8, 0x53, 0x7c, 0xbd, 0xae, 0x4b, 0x45, 0xbe,
  0xd2, 0x11, 0x1e, 0x3e, 0x07, 0x2b, 0xe6, 0xbd, 0x88, 0x6f, 0xae, 0x3d,
  0xeb, 0xf9, 0xac, 0xbc, 0xca, 0xbe, 0xbf, 0xbe, 0x04, 0x79, 0x28, 0xbe,
  0x51, 0x2a, 0x75, 0x3e, 0xc4, 0x8a, 0x9b, 0x3f, 0x31, 0x5c, 0x84, 0xbe,
  0xa0, 0x36, 0xde, 0x3d, 0x81, 0x70, 0x2e, 0x3c, 0x80, 0xf4, 0xa2, 0x3d,
  0xcb, 0x02, 0x00, 0x3e, 0x9e, 0xe5, 0x7d, 0xbe, 0xe2, 0x86, 0xf4, 0xbd,
  0xe9, 0x5d, 0xbf, 0x3d, 0xc2, 0x37, 0xe8, 0x3a, 0x52, 0x11, 0x43, 0xbe,
  0xe1, 0x2c, 0xb0, 0x3d, 0x3b, 0x30, 0x14, 0xbe, 0xe3, 0x93, 0x4a, 0xbe,
  0xfb, 0xd2, 0x89, 0xbe, 0x50, 0x6d, 0x6e, 0xbd, 0x58, 0x7b, 0x41, 0x3f,
  0x12, 0x0a, 0xa8, 0x3d, 0xea, 0x48, 0x24, 0xbd, 0x6c, 0xd6, 0x25, 0x3e,
  0x17, 0x67, 0xbe, 0x3d, 0xf2, 0x05, 0xb7, 0xbd, 0xde, 0xf8, 0x37, 0xbe,
  0xc4, 0xf0, 0x41, 0xbe, 0x25, 0x84, 0x48, 0x3d, 0x3c, 0x2e, 0x53, 0xbd,
  0xa7, 0x97, 0x1c, 0xbe, 0xb7, 0x75, 0x81, 0xbe, 0x90, 0x69, 0xb8, 0xbc,
  0x6d, 0x65, 0x07, 0x3e, 0xb4, 0xb8, 0x5c, 0xbe, 0x75, 0xdd, 0x3d, 0x3e,
  0x99, 0x09, 0x02, 0x40, 0x33, 0xb6, 0x78, 0xbe, 0x9e, 0x1a, 0xab, 0x3d,
  0xa7, 0x02, 0xad, 0xbd, 0x35, 0xb3, 0x96, 0xbe, 0xb1, 0xf3, 0x4e, 0xbe,
  0x0d, 0x88, 0xda, 0xbd, 0x1c, 0xc5, 0x9d, 0xbe, 0x7a, 0x5d, 0xfd, 0xbd,
  0x58, 0xec, 0xbe, 0xbd, 0x01, 0x5e, 0x5d, 0xbd, 0xe3, 0xec, 0x9c, 0xbe,
  0xcd, 0x19, 0xd8, 0xbd, 0x95, 0x48, 0x3f, 0xbe, 0xb1, 0x8b, 0xc1, 0xbc,
  0xc2, 0xc6, 0xb0, 0x3d, 0x3b, 0xea, 0xfb, 0x3f, 0xdd, 0x2c, 0xe6, 0x3c,
  0xe1, 0x51, 0x97, 0x3e, 0x9a, 0x50, 0x8d, 0xbd, 0x4b, 0x98, 0x98, 0x3e,
  0xe8, 0xa5, 0x45, 0xbd, 0xd2, 0x60, 0x82, 0xbd, 0x52, 0xec, 0x24, 0x3e,
  0x8a, 0xba, 0xf4, 0xbd, 0x14, 0x17, 0xc5, 0x3d, 0x96, 0x06, 0xdb, 0x3c,
  0xd5, 0xd2, 0xc5, 0xbc, 0x78, 0x60, 0x3e, 0x3d, 0x07, 0x08, 0x75, 0xbe,
  0x0a, 0xe0, 0xb3, 0x3c, 0x21, 0xd6, 0x0a, 0x3e, 0xaa, 0x73, 0x02, 0x40,
  0x57, 0x8c, 0x56, 0xbd, 0x33, 0x85, 0x64, 0x3e, 0x0f, 0x51, 0x82, 0x3c,
  0x93, 0x8e, 0x12, 0x3e, 0x7c, 0x49, 0xba, 0xbd, 0xf1, 0x5e, 0x40, 0xbe,
  0xf6, 0x77, 0xf1, 0xbb, 0x20, 0xf3, 0x07, 0xbc, 0xb6, 0x9e, 0x96, 0x3d,
  0x85, 0xb4, 0x81, 0xbe, 0xa3, 0x76, 0xbe, 0x3d, 0x93, 0x46, 0x8b, 0xbc,
  0x49, 0xf1, 0xe2, 0xbd, 0x95, 0x29, 0x81, 0xbe, 0x18, 0x26, 0x14, 0xbe,
  0x96, 0xee, 0xd2, 0x3f, 0x9b, 0x06, 0x2d, 0xbe, 0x6e, 0xd6, 0x73, 0x3e,
  0xbd, 0xd8, 0x5d, 0x3e, 0x5a, 0x62, 0x28, 0x3e, 0xdb, 0x8a, 0x1c, 0xbe,
  0xb2, 0x52, 0x81, 0xbe, 0xcf, 0x29, 0x0f, 0x3e, 0xac, 0x94, 0x48, 0x3e,
  0x16, 0xab, 0x40, 0x3e, 0x48, 0xa5, 0x2e, 0xbe, 0x11, 0x90, 0xcd, 0xbc,
  0xcb, 0x9e, 0x52, 0xbd, 0x1f, 0x6b, 0xb5, 0x3d, 0x2f, 0xaf, 0x82, 0xbe,
  0xdc, 0x01, 0xc1, 0xbd, 0x2f, 0xa6, 0xeb, 0x3f, 0xde, 0x16, 0x87, 0x3c,
  0xcd, 0xa3, 0x28, 0xbd, 0x42, 0xc3, 0x08, 0xbd, 0xa1, 0x15, 0x0e, 0xbe,
  0x4b, 0xa7, 0x35, 0xbe, 0x5c, 0xe2, 0x44, 0xbe, 0x16, 0x20, 0x15, 0xbe,
  0x5b, 0x80, 0x93, 0xbc, 0x4e, 0xb2, 0x81, 0xbc, 0x60, 0xce, 0x96, 0xbe,
  0x7e, 0x09, 0x98, 0x3d, 0xc9, 0x09, 0xad, 0x3d, 0x44, 0x0c, 0xf3, 0x3d,
  0x35, 0xc5, 0x78, 0xbd, 0xea, 0x8a, 0x54, 0x3e, 0x85, 0xba, 0x03, 0x40,
  0x43, 0x3e, 0x10, 0xbe, 0x68, 0xd0, 0x64, 0x3d, 0x76, 0x02, 0xc3, 0xbd,
  0x5d, 0xfa, 0x02, 0xbe, 0x9d, 0xd4, 0xe6, 0xbd, 0x2a, 0x29, 0x24, 0xbd,
  0xf7, 0xdf, 0x17, 0xbe, 0x3a, 0xe9, 0xb5, 0xbd, 0x7b, 0x99, 0x60, 0x3d,
  0x9a, 0x80, 0x8f, 0xbc, 0x14, 0x35, 0x23, 0xbc, 0x72, 0x0d, 0x8a, 0xbd,
  0x00, 0x41, 0x8e, 0x3b, 0xd6, 0x5f, 0x2b, 0x3c, 0xb0, 0xe5, 0x82, 0xbb,
  0x5b, 0xbf, 0xba, 0x3f, 0x1c, 0xf1, 0x94, 0xbd, 0x41, 0x2d, 0xf4, 0xbc,
  0x86, 0x33, 0x75, 0x3e, 0x5b, 0xb0, 0x25, 0xbe, 0x40, 0x93, 0x9f, 0x3d,
  0x37, 0x74, 0x8a, 0x3e, 0x85, 0x4f, 0xa2, 0x3c, 0xd5, 0x05, 0x98, 0xbc,
  0x87, 0x18, 0xe9, 0x3d, 0xd2, 0xde, 0x04, 0x3e, 0x2a, 0x3b, 0x8c, 0x3d,
  0x1a, 0x21, 0x24, 0x3e, 0xde, 0x45, 0x0a, 0x3d, 0x32, 0xfd, 0x1d, 0x3e,
  0x93, 0xc5, 0x8e, 0x3d, 0xd7, 0x78, 0x1e, 0xbe, 0xf4, 0xc0, 0x88, 0xbd,
  0x0b, 0x6c, 0xce, 0x3d, 0xc7, 0xc8, 0x8f, 0x3e, 0xa0, 0x5b, 0x97, 0xbd,
  0x33, 0xb8, 0x77, 0xbd, 0x5f, 0xe2, 0x7a, 0x3e, 0xe1, 0x4f, 0x99, 0xbc,
  0x91, 0x4d, 0x79, 0x3d, 0xf7, 0x50, 0x5b, 0x3e, 0xd7, 0x37, 0xa9, 0xbd,
  0xcd, 0x0d, 0x2f, 0xbb, 0x5a, 0xd9, 0xa5, 0x3e, 0x28, 0x42, 0xe1, 0x3c,
  0x28, 0xe6, 0x12, 0xbd, 0x2a, 0x5b, 0x38, 0xbe, 0x7e, 0x5a, 0x07, 0xbe,
  0xcf, 0xee, 0x46, 0xbe, 0x36, 0x5a, 0xbc, 0xbe, 0xf3, 0x99, 0x43, 0x3e,
  0x52, 0xc8, 0xa2, 0xbd, 0x08, 0x0c, 0x26, 0xbe, 0x06, 0xa9, 0xff, 0xbd,
  0x82, 0x7e, 0xad, 0x3c, 0x3d, 0x90, 0x45, 0xbd, 0x9c, 0x42, 0xa2, 0xbd,
  0x8c, 0x50, 0x54, 0xbe, 0x0d, 0x78, 0x15, 0xbb, 0x9e, 0x2a, 0xa7, 0x3c,
  0x9f, 0x99, 0x94, 0x3c, 0x75, 0x5d, 0x6b, 0xbd, 0x71, 0x18, 0x8c, 0xbc,
  0x69, 0xef, 0x05, 0xbd, 0x30, 0x25, 0x60, 0xbe, 0x86, 0xb9, 0xd0, 0xbe,
  0xc1, 0x9d, 0x26, 0x3e, 0x97, 0xab, 0xa8, 0xbd, 0x28, 0x13, 0xd0, 0x3c,
  0x39, 0xac, 0x4d, 0xbe, 0x3d, 0xae, 0x99, 0x3a, 0x23, 0x2e, 0x3b, 0xbd,
  0x75, 0xd7, 0x87, 0x3c, 0xaf, 0x34, 0x4c, 0xbe, 0x9a, 0x17, 0xe8, 0x3c,
  0xb2, 0x16, 0xd8, 0x3d, 0xb1, 0xfd, 0x8f, 0x3c, 0xba, 0xbb, 0xd7, 0xbc,
  0xa1, 0xfa, 0x09, 0xbe, 0xf2, 0xf4, 0xb6, 0xbd, 0x0d, 0x36, 0xb7, 0x3d,
  0x32, 0x17, 0x93, 0x3d, 0x35, 0xf1, 0x2d, 0x3d, 0xbf, 0x90, 0xec, 0xbd,
  0xc4, 0xb0, 0x71, 0xbd, 0xe7, 0xfa, 0x04, 0xbe, 0x8f, 0x89, 0x0b, 0xbd,
  0x1a, 0xd9, 0x79, 0xbd, 0x88, 0x05, 0xaf, 0xbd, 0xed, 0xf2, 0xa9, 0xbd,
  0x60, 0xe9, 0x0d, 0x3b, 0x84, 0x3a, 0xd2, 0x3d, 0x75, 0x6c, 0x19, 0x3c,
  0xc8, 0xe9, 0x90, 0xbc, 0x7b, 0xa2, 0xe9, 0xbd, 0x4b, 0xe9, 0x88, 0xbe,
  0x34, 0xbc, 0xe1, 0x3d, 0x74, 0x53, 0xd7, 0xbc, 0xe9, 0x44, 0xa8, 0x3d,
  0x44, 0x4d, 0x14, 0xbd, 0x45, 0xc8, 0xa7, 0x3d, 0xc0, 0x8a, 0x1e, 0xbe,
  0x59, 0x83, 0xa3, 0xb9, 0xef, 0x96, 0x46, 0xbd, 0x2e, 0xe4, 0x03, 0xbe,
  0x39, 0x21, 0x87, 0xbd, 0x10, 0x57, 0xfc, 0x3d, 0x43, 0x0f, 0x2e, 0x3e,
  0xa0, 0x59, 0x50, 0xbc, 0x72, 0xc1, 0x68, 0xbd, 0x66, 0xc0, 0xfb, 0xbd,
  0x97, 0xed, 0x75, 0xbe, 0x44, 0x80, 0x0e, 0x3e, 0xdf, 0xaf, 0xb4, 0x3d,
  0xa7, 0xa1, 0x3a, 0xbe, 0x29, 0xca, 0x80, 0xbd, 0x24, 0x7f, 0xf8, 0x3d,
  0x2c, 0x10, 0xb6, 0xba, 0xa9, 0x52, 0x82, 0xbc, 0x67, 0x69, 0x4a, 0xbd,
  0xd7, 0x27, 0x21, 0xbd, 0xda, 0xb0, 0x08, 0xbd, 0xfe, 0x39, 0x03, 0xbd,
  0x0f, 0x76, 0x42, 0x3e, 0xea, 0xcd, 0xa2, 0xbc, 0xd1, 0x15, 0x43, 0xbd,
  0x66, 0x98, 0xc1, 0xbd, 0x94, 0x42, 0xb0, 0x3c, 0x98, 0x35, 0x12, 0x3e,
  0xdd, 0x18, 0x43, 0xbe, 0x2b, 0xbf, 0x93, 0xbe, 0x13, 0x34, 0xa6, 0x3d,
  0xbd, 0xdd, 0xa5, 0xbe, 0x9f, 0x18, 0xb2, 0x3c, 0x5b, 0xe4, 0xe3, 0xbe,
  0x0e, 0x45, 0xc7, 0xbd, 0x94, 0x38, 0x6b, 0x3d, 0xc4, 0x94, 0xb2, 0xbe,
  0x57, 0x30, 0xd8, 0xbe, 0xcd, 0x9b, 0xba, 0xbd, 0x54, 0x88, 0x32, 0xbe,
  0x5b, 0xa7, 0x83, 0xbf, 0xda, 0xaf, 0xc7, 0xbe, 0x89, 0xf8, 0xc6, 0xbd,
  0xde, 0xaa, 0xa4, 0x3d, 0x14, 0x6f, 0x14, 0xbe, 0x2f, 0xe4, 0x73, 0xbe,
  0x17, 0xd6, 0x6b, 0x3e, 0x43, 0x32, 0x81, 0xbd, 0x5c, 0xf7, 0xa9, 0xbe,
  0x7a, 0x38, 0x2d, 0xbe, 0x7f, 0xc6, 0x32, 0xbe, 0xfe, 0x70, 0x51, 0x3e,
  0x34, 0xff, 0xd3, 0xbe, 0xec, 0x18, 0x54, 0x3e, 0x71, 0xcd, 0xb2, 0x3d,
  0x39, 0xea, 0xf0, 0x3c, 0x62, 0xd9, 0x3b, 0x3e, 0x68, 0x43, 0x80, 0xbe,
  0x60, 0x82, 0x17, 0xbe, 0xdf, 0x58, 0x85, 0x3c, 0xff, 0xc9, 0x4d, 0xbd,
  0x91, 0x07, 0x79, 0xba, 0xa3, 0x9c, 0x3c, 0x3d, 0xc6, 0x7e, 0x37, 0x3e,
  0x9e, 0x0c, 0x0b, 0x3e, 0xe2, 0x6c, 0xea, 0x3d, 0xbf, 0x27, 0x0e, 0x3e,
  0xb7, 0xb0, 0x0d, 0xbd, 0xa6, 0xfc, 0xf5, 0xbd, 0x44, 0x08, 0x38, 0x3d,
  0x84, 0x5d, 0x14, 0xbc, 0x51, 0x46, 0xe8, 0x3c, 0xc9, 0x6f, 0x8b, 0x3e,
  0xae, 0x58, 0xa2, 0xbd, 0xec, 0x3b, 0x30, 0xbe, 0x63, 0xb6, 0x6d, 0x3d,
  0x02, 0x5f, 0x2b, 0xbd, 0x20, 0x4f, 0x34, 0x3d, 0xcd, 0x83, 0xcd, 0x3c,
  0x49, 0x11, 0xbf, 0x3d, 0x65, 0xd1, 0x89, 0x3d, 0x97, 0x40, 0x90, 0x3d,
  0x64, 0x7a, 0xaf, 0x3c, 0xa2, 0x49, 0xe0, 0x3d, 0x1e, 0x24, 0xfd, 0xbc,
  0xee, 0x95, 0x4d, 0xbd, 0x93, 0x8d, 0xbe, 0x3d, 0x1a, 0x1f, 0xac, 0xbc,
  0xc0, 0x30, 0x0a, 0x3e, 0xfd, 0x21, 0x2b, 0x3d, 0x7b, 0xa3, 0xa8, 0x3d,
  0xbb, 0x1d, 0x06, 0xbe, 0xf5, 0xff, 0x8c, 0xbd, 0x39, 0xd7, 0x27, 0x3e,
  0xd1, 0x11, 0x03, 0x3d, 0xf8, 0x5d, 0x02, 0xbe, 0x29, 0x5c, 0xb0, 0x3e,
  0x49, 0x27, 0x2c, 0x3d, 0x6e, 0xbf, 0xf1, 0xbd, 0xe7, 0x37, 0x9f, 0xbd,
  0xe7, 0x45, 0x10, 0xbe, 0xa7, 0x76, 0x4a, 0xbd, 0xca, 0xb1, 0xf6, 0xbd,
  0xec, 0x14, 0x91, 0x3d, 0xc3, 0x7d, 0x2a, 0x3e, 0x92, 0x9d, 0x42, 0xbe,
  0x48, 0x83, 0x9f, 0x3d, 0xbb, 0x2f, 0x77, 0xbe, 0x95, 0xe0, 0x65, 0xbe,
  0xcb, 0x0e, 0x01, 0xbe, 0xae, 0x65, 0x5d, 0x3c, 0xfc, 0xdd, 0xb9, 0xbe,
  0xc7, 0x88, 0x7a, 0x3e, 0xa9, 0x74, 0x8a, 0xbb, 0x71, 0xed, 0x2b, 0xbe,
  0x1b, 0x76, 0x85, 0x3d, 0x54, 0xe6, 0x6c, 0xbe, 0x4d, 0x1c, 0x79, 0x3e,
  0x9d, 0x44, 0x52, 0x3e, 0x1a, 0xfd, 0xe7, 0x3d, 0xfc, 0xa9, 0x42, 0x3e,
  0xa0, 0xa9, 0x4e, 0xbd, 0x93, 0xc3, 0xc2, 0xbd, 0x1d, 0x0e, 0xab, 0xbb,
  0x15, 0x70, 0x49, 0xbd, 0x5e, 0xa9, 0x6d, 0xbe, 0x64, 0xd2, 0x2d, 0xbc,
  0x14, 0x1d, 0x41, 0xbe, 0x82, 0x3e, 0xbc, 0x3d, 0x3e, 0x38, 0x12, 0xbd,
  0xf4, 0x39, 0x00, 0xbe, 0x1b, 0xf8, 0x16, 0xbe, 0xb3, 0x7f, 0x39, 0xbd,
  0xaa, 0xfe, 0xdf, 0x3c, 0x52, 0x7d, 0x73, 0x3d, 0x59, 0x34, 0x05, 0x3e,
  0xbd, 0x1c, 0xa5, 0x3d, 0x1b, 0x83, 0x9a, 0xbd, 0x81, 0x70, 0x1d, 0xbd,
  0xa4, 0x4c, 0x56, 0xbd, 0x6c, 0x0b, 0xb3, 0xbd, 0xb4, 0x57, 0x33, 0x3e,
  0xb6, 0x93, 0x25, 0xbd, 0xc6, 0xd5, 0x2c, 0x3c, 0x2a, 0xe6, 0x6f, 0x3e,
  0xc0, 0x1c, 0xe5, 0xbd, 0xfe, 0xe1, 0xc2, 0xbe, 0x77, 0x04, 0x3f, 0x3d,
  0x35, 0xa9, 0x21, 0x3d, 0xd5, 0xc6, 0x40, 0xbd, 0x3b, 0xdf, 0x68, 0x3e,
  0xa9, 0xf8, 0xda, 0xbd, 0x36, 0x1d, 0x9f, 0x3d, 0x49, 0x07, 0x2c, 0xbd,
  0x25, 0xd2, 0xff, 0xbd, 0x5d, 0xf0, 0x86, 0x3e, 0x6e, 0xd9, 0x41, 0xbd,
  0x28, 0xb7, 0x85, 0x3e, 0x2d, 0x53, 0x81, 0x3e, 0xc9, 0xc1, 0x2e, 0x3d,
  0x55, 0x3b, 0x10, 0x3e, 0x93, 0x98, 0x8c, 0xbe, 0x7b, 0x58, 0xae, 0xbe,
  0xd2, 0x53, 0x3b, 0x3e, 0xca, 0x4e, 0xf8, 0xbc, 0xec, 0x44, 0x38, 0x3e,
  0x70, 0xee, 0x9e, 0x3e, 0xcb, 0x93, 0x87, 0x3c, 0xb2, 0xe2, 0x6f, 0x3d,
  0x87, 0xa2, 0xb9, 0xbd, 0x9a, 0xf0, 0x0a, 0x3e, 0x17, 0x01, 0x9a, 0xbd,
  0x28, 0xfb, 0x16, 0xbe, 0xc0, 0x92, 0x12, 0x3e, 0x07, 0x78, 0x52, 0x3d,
  0x9f, 0xbb, 0xea, 0x3c, 0xa5, 0x69, 0x2f, 0xbe, 0x47, 0x8b, 0xd9, 0xbd,
  0x10, 0xf5, 0xba, 0xbe, 0xff, 0x90, 0x4e, 0x3e, 0x65, 0x74, 0xec, 0xbd,
  0xfe, 0xc1, 0xae, 0x3d, 0x64, 0xb5, 0x7b, 0x3e, 0x6d, 0x7f, 0x15, 0x3d,
  0xc9, 0x82, 0xf6, 0xbc, 0x0f, 0xbd, 0xf3, 0x3d, 0xe2, 0xbd, 0x0d, 0x3d,
  0x96, 0xea, 0xe1, 0x3d, 0x08, 0x5f, 0x19, 0xbf, 0x97, 0x21, 0x91, 0x3d,
  0xdc, 0x88, 0x1d, 0xbe, 0x06, 0x20, 0x36, 0x3e, 0x1f, 0xf7, 0x23, 0xbc,
  0x43, 0x92, 0x1f, 0x3c, 0xd9, 0xb5, 0xd7, 0xbe, 0x36, 0x75, 0x93, 0x3d,
  0xfc, 0x54, 0xfd, 0xbd, 0x17, 0x4b, 0x4c, 0xbb, 0x21, 0x1b, 0xcb, 0xbd,
  0x10, 0x71, 0xfa, 0x3b, 0x8b, 0x52, 0xc6, 0xbd, 0xbd, 0x2c, 0xfd, 0xbd,
  0x74, 0x8b, 0x85, 0x3d, 0xfc, 0x83, 0xdf, 0x3d, 0xe9, 0x1f, 0x31, 0x3d,
  0x23, 0x9e, 0x0a, 0x3e, 0xec, 0x45, 0x89, 0x3d, 0xce, 0xc7, 0x0f, 0x3e,
  0x8a, 0x46, 0x0d, 0xbe, 0x4a, 0xa1, 0xa7, 0xbd, 0x7e, 0x33, 0x12, 0xbe,
  0xce, 0xa9, 0x0f, 0x3e, 0x26, 0x58, 0x26, 0x3d, 0x79, 0x15, 0xca, 0x3d,
  0x66, 0x03, 0x91, 0x3e, 0x9e, 0xa9, 0xae, 0xbd, 0xe1, 0x77, 0xa4, 0x3c,
  0x65, 0xb8, 0xcf, 0xbd, 0xed, 0x0c, 0x48, 0xbe, 0x13, 0x43, 0xe5, 0x3d,
  0x55, 0xde, 0xe5, 0x3d, 0xb4, 0xcd, 0x7d, 0x3d, 0x76, 0x25, 0x96, 0xbd,
  0xd2, 0x3a, 0x07, 0x3e, 0x74, 0xe2, 0xeb, 0xbe, 0xfa, 0x43, 0x50, 0xbe,
  0x03, 0x46, 0x92, 0x3d, 0x66, 0x4b, 0x1c, 0x3d, 0x15, 0xb9, 0xa5, 0x3d,
  0xcd, 0x3a, 0x38, 0x3e, 0xe3, 0x05, 0xab, 0x3e, 0x55, 0x7d, 0x37, 0xbd,
  0x36, 0x7d, 0x5f, 0x3d, 0xd6, 0xee, 0x4e, 0x3d, 0x8e, 0xc8, 0xda, 0xbd,
  0x44, 0x26, 0xd5, 0x3e, 0xd6, 0x48, 0x4a, 0x3c, 0x21, 0xb7, 0x0d, 0xbf,
  0x7d, 0x77, 0x52, 0xbd, 0xab, 0x90, 0x19, 0x3e, 0x38, 0x47, 0x9b, 0xbe,
  0x0c, 0xd6, 0x5e, 0xbe, 0xa6, 0xb7, 0x32, 0xbd, 0x8b, 0xbf, 0x05, 0x3e,
  0x28, 0xbd, 0x28, 0xbe, 0x14, 0x20, 0xb7, 0xbe, 0x12, 0x72, 0x36, 0x3e,
  0x72, 0x34, 0xab, 0x3d, 0xcf, 0xe6, 0x3c, 0xbe, 0x85, 0xd1, 0xf3, 0xbd,
  0x1f, 0x8f, 0x6c, 0xbe, 0x9d, 0x4c, 0xfd, 0x3c, 0xf7, 0x7e, 0x0a, 0x3b,
  0xc9, 0x6b, 0x15, 0x3b, 0xc9, 0x75, 0xf0, 0xbc, 0x37, 0x3f, 0x57, 0xbe,
  0x4d, 0xf1, 0xd1, 0xbe, 0xcc, 0xfb, 0x09, 0x3e, 0xe6, 0x57, 0x3b, 0xbe,
  0x31, 0xd3, 0xd9, 0x3d, 0x7b, 0x79, 0xdd, 0x3d, 0xba, 0x67, 0xd9, 0xbc,
  0xf8, 0xff, 0xc1, 0xbd, 0x53, 0x06, 0xcf, 0xbe, 0x5e, 0x14, 0x15, 0x3d,
  0x23, 0x1f, 0xec, 0xbd, 0x16, 0xfc, 0x88, 0xbc, 0x1d, 0x68, 0xb9, 0xbd,
  0xe9, 0x35, 0x6a, 0x3d, 0xba, 0x35, 0x21, 0x3d, 0xb8, 0x6d, 0x46, 0xbd,
  0xac, 0x8f, 0x64, 0x3e, 0xff, 0xb4, 0x30, 0x3d, 0xc5, 0x7e, 0x27, 0x3e,
  0xe7, 0x4f, 0xb4, 0xbe, 0xb1, 0x34, 0x41, 0x3e, 0x71, 0x9f, 0x02, 0x3e,
  0x75, 0x5d, 0x06, 0xbe, 0xa8, 0x6a, 0xa4, 0xbd, 0xea, 0xf4, 0x52, 0xbd,
  0x98, 0x1a, 0xf2, 0xbd, 0xbb, 0x99, 0x39, 0xbe, 0x3d, 0x6c, 0x80, 0xbd,
  0x55, 0x10, 0x0d, 0x3e, 0xd3, 0x37, 0x04, 0x3b, 0x57, 0xdf, 0x39, 0x3e,
  0xd8, 0xda, 0xfc, 0xbd, 0xfc, 0x5c, 0x1a, 0x3e, 0x5f, 0x5a, 0xe6, 0x3d,
  0x97, 0x8c, 0x50, 0x3d, 0x27, 0xea, 0x9b, 0xbd, 0x8d, 0x65, 0xe1, 0xbc,
  0xd5, 0xa7, 0x07, 0x3e, 0x33, 0x5f, 0x12, 0xbe, 0x6c, 0x36, 0x3a, 0x3d,
  0xee, 0x87, 0x0d, 0xbe, 0x1a, 0x73, 0x95, 0xbd, 0x14, 0x62, 0xd4, 0x3d,
  0x73, 0x55, 0x40, 0x3b, 0x6d, 0x45, 0x3b, 0x3e, 0x30, 0x43, 0xf0, 0xbc,
  0x47, 0x56, 0x59, 0xbd, 0x1c, 0x74, 0x49, 0x3b, 0x79, 0x99, 0x54, 0x3e,
  0xa7, 0xc3, 0x16, 0x3e, 0xd9, 0x48, 0x12, 0xbe, 0x96, 0x21, 0x55, 0xbd,
  0xb4, 0x64, 0x8f, 0x3d, 0xba, 0x69, 0x47, 0x3d, 0x24, 0x0a, 0xdf, 0xbe,
  0xf5, 0xdb, 0x03, 0xbd, 0x70, 0xbe, 0xcd, 0xbe, 0x3e, 0x15, 0x6f, 0xbd,
  0x51, 0xcd, 0x6d, 0x3e, 0xd4, 0x45, 0x9d, 0x3c, 0x7a, 0x33, 0x72, 0x3d,
  0x60, 0x65, 0xde, 0x3d, 0xb2, 0x24, 0x1b, 0xbe, 0x94, 0x00, 0x7c, 0xbe,
  0xa3, 0x20, 0x13, 0xbe, 0xc5, 0xba, 0x18, 0xbe, 0xf0, 0x73, 0x74, 0x3e,
  0x3a, 0xf6, 0xd7, 0xbd, 0x84, 0xe5, 0xbd, 0xbc, 0x72, 0x66, 0x10, 0x3e,
  0x84, 0xc3, 0x97, 0xbe, 0x33, 0x1d, 0x7e, 0xbd, 0x8c, 0x7a, 0x22, 0xbe,
  0xa1, 0x18, 0x42, 0xbd, 0x63, 0xfc, 0x18, 0x3e, 0xfb, 0xd0, 0xb4, 0xbc,
  0xb0, 0x62, 0x2b, 0xbd, 0x6a, 0xa8, 0x9d, 0xbd, 0x14, 0xd6, 0x60, 0xbd,
  0x7f, 0xe4, 0x0c, 0xbd, 0x57, 0xd1, 0xad, 0xbd, 0xd1, 0x20, 0xdd, 0x3e,
  0xa7, 0x09, 0x2c, 0xbe, 0xe9, 0x55, 0xd7, 0xbd, 0x95, 0x23, 0x0c, 0x3e,
  0x8e, 0xd6, 0x11, 0x3d, 0xa1, 0x1b, 0x43, 0xbe, 0x8b, 0xe8, 0xf3, 0xbd,
  0x77, 0x45, 0x35, 0xbe, 0xb5, 0x50, 0xb5, 0xbe, 0x05, 0x6f, 0xb2, 0xbd,
  0x0b, 0x85, 0x02, 0xbe, 0x99, 0x1a, 0x17, 0x3e, 0x90, 0xc5, 0x79, 0x3d,
  0xdc, 0x88, 0x57, 0xbe, 0x6e, 0xac, 0x0d, 0xbd, 0xb2, 0x9c, 0x28, 0x3d,
  0x3c, 0xfe, 0x0d, 0x3e, 0x18, 0x8c, 0xd7, 0x3c, 0xc5, 0x4b, 0x61, 0xbe,
  0xef, 0x32, 0x9a, 0xbd, 0x26, 0x14, 0x92, 0x3d, 0x78, 0xd8, 0xce, 0xbc,
  0xb3, 0xd2, 0x0b, 0x3d, 0x3b, 0x49, 0xbb, 0xbe, 0xe1, 0xe8, 0x57, 0xbe,
  0x80, 0x9d, 0xfc, 0xbb, 0x1e, 0xeb, 0xc9, 0xbb, 0xda, 0xb6, 0x97, 0xbe,
  0x69, 0xe4, 0x07, 0xbe, 0x43, 0x06, 0x76, 0x3e, 0xbb, 0x60, 0xc8, 0xbc,
  0x29, 0x05, 0xb8, 0xbc, 0x45, 0x17, 0x1c, 0x3e, 0x63, 0x67, 0x24, 0xbe,
  0xa3, 0x33, 0x51, 0x3c, 0x67, 0x19, 0x0b, 0xbc, 0x68, 0xeb, 0x31, 0xbe,
  0xfc, 0x74, 0x71, 0x3c, 0x5a, 0x89, 0x2a, 0x3d, 0xa2, 0xa8, 0x21, 0xbe,
  0xe6, 0x76, 0xa6, 0xbd, 0xb8, 0xdc, 0x87, 0x3e, 0x8f, 0x5c, 0xbe, 0x3f,
  0x4f, 0xc6, 0x15, 0x3d, 0x1b, 0xd7, 0xb3, 0x3d, 0x96, 0xba, 0xb8, 0x3e,
  0x48, 0xed, 0x0e, 0x3d, 0xad, 0x1f, 0x36, 0x3e, 0x55, 0x89, 0xc2, 0x3d,
  0xd1, 0x78, 0x53, 0x3e, 0x94, 0x64, 0x8b, 0xbd, 0x5b, 0xdd, 0x6c, 0xbe,
  0x95, 0xe5, 0xa7, 0xbc, 0xe0, 0x5d, 0x28, 0x3d, 0xdc, 0x25, 0xda, 0x3e,
  0xe4, 0x38, 0x23, 0xbd, 0x5c, 0xf6, 0x02, 0xbc, 0x9d, 0xd0, 0xa9, 0x3d,
  0xcf, 0x76, 0xaf, 0x3f, 0x0f, 0x9b, 0x1d, 0x3c, 0xca, 0x12, 0x04, 0x3d,
  0x7b, 0x7f, 0xf4, 0x3b, 0xc1, 0xce, 0xd4, 0xbc, 0xbb, 0x4a, 0x50, 0xbe,
  0x9c, 0x16, 0xc4, 0xbd, 0x2d, 0xd1, 0xc2, 0x3d, 0x70, 0x2f, 0x9b, 0x3b,
  0xae, 0xf7, 0x11, 0xbe, 0xba, 0x1f, 0x88, 0xbe, 0x1c, 0xf9, 0xfc, 0xbd,
  0x3e, 0xaf, 0x56, 0xbd, 0xed, 0xf6, 0x5a, 0x3d, 0x92, 0x62, 0x81, 0x3c,
  0x2e, 0x50, 0xa1, 0x3c, 0x07, 0xc5, 0xd7, 0x3f, 0x3f, 0xb2, 0x25, 0x3e,
  0x8d, 0xef, 0x9b, 0xbd, 0xad, 0xba, 0x8c, 0x3e, 0x44, 0x74, 0xfc, 0xbd,
  0x42, 0x87, 0x1c, 0xbe, 0xa1, 0x13, 0x00, 0xbe, 0x05, 0xb6, 0x80, 0xbd,
  0xf2, 0xf6, 0x33, 0x3c, 0xcd, 0x9b, 0xae, 0x3d, 0xf8, 0x66, 0x83, 0xbd,
  0xd2, 0xfa, 0xc8, 0xbb, 0x86, 0x0a, 0x73, 0x3e, 0x74, 0x22, 0x91, 0xbd,
  0xbc, 0x1b, 0x37, 0xbe, 0xaa, 0x90, 0xa1, 0x3d, 0xe6, 0xa9, 0xd1, 0x3f,
  0x42, 0x49, 0xa2, 0x3d, 0x86, 0x46, 0x4f, 0x3c, 0xd5, 0xf2, 0xd2, 0x3d,
  0x89, 0x75, 0x3d, 0xbe, 0x93, 0x22, 0x97, 0xbd, 0xe4, 0x20, 0x83, 0x3d,
  0x7c, 0x55, 0xdc, 0xbc, 0xc0, 0xd7, 0xcf, 0xbd, 0xfe, 0x20, 0x4c, 0x3d,
  0x0e, 0x5a, 0xf4, 0xbd, 0x92, 0x6c, 0xdd, 0xbc, 0x1c, 0x23, 0xeb, 0xbc,
  0xa2, 0x31, 0xd1, 0x3d, 0x65, 0xf8, 0x93, 0xbe, 0x3b, 0xc9, 0xe9, 0xbc,
  0xf6, 0x10, 0xce, 0x3f, 0x19, 0x89, 0x30, 0xbe, 0x8b, 0x51, 0x92, 0x3d,
  0xe2, 0xcc, 0x42, 0xbd, 0x62, 0x70, 0xc4, 0x3d, 0xca, 0xba, 0x11, 0xbd,
  0x2e, 0xdd, 0xda, 0xbd, 0x7c, 0x7c, 0x8d, 0x3d, 0x85, 0x1b, 0xa0, 0xbd,
  0xe0, 0x2a, 0x37, 0x3e, 0xe8, 0x36, 0x5a, 0xbe, 0xe2, 0x0b, 0x1f, 0xbc,
  0x33, 0x02, 0x78, 0x3d, 0xbc, 0x23, 0xe7, 0xbd, 0x5a, 0x23, 0x68, 0xbe,
  0x9d, 0xa5, 0x47, 0x3d, 0xfc, 0x91, 0xfc, 0x3f, 0xd3, 0x45, 0xc0, 0xbc,
  0xc9, 0x5e, 0x2e, 0xbd, 0x4f, 0x74, 0x7a, 0x3c, 0xfc, 0xe3, 0x75, 0xbe,
  0x9a, 0x89, 0xc2, 0x3d, 0x01, 0x58, 0x1e, 0xbd, 0x96, 0xd0, 0x60, 0xbd,
  0x67, 0x8b, 0x65, 0xbe, 0x57, 0x11, 0x61, 0x3d, 0x29, 0x4a, 0x15, 0xbe,
  0xfe, 0x66, 0x56, 0xbe, 0x9f, 0x1d, 0xaa, 0x3c, 0x07, 0x5c, 0x6a, 0xbe,
  0x6c, 0xb6, 0x8c, 0xbe, 0x05, 0x13, 0xb5, 0x3d, 0x63, 0xc4, 0x98, 0x3f,
  0xff, 0xe1, 0xf9, 0xbd, 0x36, 0x94, 0xe5, 0xbd, 0x99, 0x8f, 0x7e, 0xbd,
  0xfc, 0x3e, 0x05, 0xbf, 0x95, 0x5d, 0x1e, 0x3e, 0x1f, 0x5e, 0x8c, 0x3e,
  0x36, 0x0f, 0x7b, 0xbe, 0x64, 0x60, 0x6e, 0xbe, 0xce, 0xb8, 0x26, 0xbd,
  0xb6, 0x01, 0xaa, 0xbd, 0xe0, 0x8c, 0x94, 0xbd, 0x8d, 0xe8, 0x13, 0xbe,
  0x8a, 0x65, 0x2b, 0xbf, 0xa4, 0x71, 0x9b, 0xbe, 0x34, 0xc6, 0xa7, 0x3e,
  0xde, 0xb8, 0xdf, 0x3f, 0x64, 0x50, 0x83, 0xbe, 0x58, 0xaa, 0xa0, 0xbe,
  0x7f, 0x41, 0x6c, 0xbd, 0x0a, 0xb7, 0x92, 0xbe, 0x85, 0x61, 0xe0, 0xbd,
  0x95, 0x26, 0x0a, 0x3c, 0xb3, 0xfb, 0x81, 0x3c, 0xde, 0xfc, 0xb3, 0xbc,
  0x05, 0xa3, 0x07, 0xbe, 0x97, 0x29, 0x52, 0xbb, 0xae, 0x12, 0xca, 0xbd,
  0x02, 0x53, 0x34, 0xbe, 0x52, 0xeb, 0xbb, 0xbe, 0x41, 0x4a, 0x0e, 0x3c,
  0xc4, 0x22, 0x7a, 0xbe, 0x58, 0x33, 0xc5, 0x3f, 0x5d, 0xfe, 0x18, 0xbe,
  0x11, 0x27, 0x3d, 0xbe, 0x32, 0xff, 0xfd, 0xbc, 0x86, 0x1d, 0x5e, 0xbe,
  0x61, 0x54, 0xf1, 0x3d, 0x14, 0x95, 0x9f, 0xbc, 0xc5, 0x3b, 0xe3, 0xbd,
  0x3b, 0xbb, 0x6a, 0xbd, 0xd5, 0xfa, 0xed, 0xbd, 0x64, 0xa9, 0x88, 0x3a,
  0xf1, 0x7a, 0x59, 0x3d, 0xda, 0xcd, 0x22, 0xbe, 0xd2, 0x8a, 0x05, 0xbf,
  0xf8, 0xaf, 0x17, 0x3d, 0xf6, 0xea, 0xf7, 0xbc, 0x21, 0x11, 0xb2, 0x3f,
  0x9e, 0x9a, 0xe1, 0x3b, 0x42, 0xfd, 0xca, 0xbe, 0x8b, 0x00, 0x66, 0xbd,
  0x72, 0xb7, 0xc3, 0xbe, 0xf0, 0x84, 0x3f, 0xbe, 0x43, 0x68, 0x2d, 0x3d,
  0x86, 0x44, 0x2c, 0x3e, 0xf2, 0x96, 0xe2, 0xbd, 0xed, 0xcb, 0xe3, 0xbd,
  0x42, 0x7e, 0xe0, 0xbb, 0x05, 0x1c, 0xee, 0xbb, 0x34, 0x98, 0x3f, 0xbe,
  0x3d, 0x80, 0x1a, 0xbf, 0x10, 0x76, 0x30, 0xbd, 0x5d, 0x3b, 0x71, 0xbe,
  0x34, 0x89, 0xb1, 0x3f, 0x62, 0xa4, 0x19, 0x3d, 0xee, 0x34, 0x91, 0xbe,
  0x59, 0xec, 0xb8, 0xbc, 0x59, 0x7c, 0x68, 0xbf, 0xbb, 0x14, 0x01, 0xbe,
  0x8b, 0x13, 0x1a, 0x3e, 0x8d, 0xac, 0x37, 0x3d, 0x67, 0xad, 0x95, 0xbe,
  0xaa, 0x0b, 0x0c, 0xbe, 0x06, 0x56, 0x87, 0xbc, 0x6c, 0xd4, 0xa6, 0xbc,
  0x74, 0x2a, 0x20, 0xbe, 0x4b, 0x9f, 0x11, 0xbf, 0xc4, 0xbc, 0xf7, 0x3a,
  0x57, 0x03, 0xdf, 0xbe, 0xd9, 0xdb, 0xbd, 0x3f, 0xaa, 0x01, 0x72, 0xbe,
  0x2a, 0xd9, 0x2b, 0xbe, 0xcc, 0xec, 0x70, 0xbe, 0x93, 0x12, 0x89, 0x3c,
  0xbe, 0x09, 0x41, 0x3c, 0x8b, 0x32, 0xb8, 0x3c, 0xef, 0x5a, 0x8e, 0x3e,
  0xeb, 0x8a, 0x91, 0xbc, 0x01, 0x97, 0x46, 0xbe, 0x77, 0x15, 0xd7, 0xbd,
  0x73, 0x3b, 0x4d, 0xbd, 0x1e, 0x90, 0x82, 0xbe, 0xef, 0x89, 0x49, 0xbf,
  0xd1, 0x32, 0x11, 0xbe, 0x15, 0x10, 0x0e, 0xbe, 0x4d, 0xcd, 0xce, 0x3f,
  0x7b, 0xea, 0x53, 0x3e, 0xb0, 0x0a, 0x17, 0x3e, 0x38, 0xf3, 0x6f, 0xbd,
  0x35, 0xd4, 0x87, 0x3d, 0x31, 0x86, 0x9a, 0x3e, 0x36, 0xc3, 0xb5, 0xbd,
  0x0a, 0x10, 0x2b, 0xbc, 0xc6, 0x91, 0xd4, 0xbd, 0x3f, 0x97, 0x79, 0x3c,
  0xd9, 0x60, 0xaf, 0x3d, 0x75, 0x59, 0x99, 0xbd, 0x0d, 0xfb, 0x04, 0x3d,
  0x9b, 0x59, 0x98, 0x3d, 0xca, 0x49, 0x17, 0x3e, 0x12, 0x17, 0x57, 0xbd,
  0xeb, 0x0c, 0x7a, 0x3f, 0x39, 0x93, 0xbd, 0x3d, 0x5e, 0xfd, 0xff, 0xff,
  0x10, 0x00, 0x00, 0x00, 0x07, 0x00, 0x00, 0x00, 0x14, 0x00, 0x00, 0x00,
  0x2c, 0x00, 0x00, 0x00, 0x02, 0x00, 0x00, 0x00, 0x10, 0x00, 0x00, 0x00,
  0x70, 0x00, 0x00, 0x00, 0x17, 0x00, 0x00, 0x00, 0x73, 0x65, 0x71, 0x75,
  0x65, 0x6e, 0x74, 0x69, 0x61, 0x6c, 0x2f, 0x64, 0x65, 0x6e, 0x73, 0x65,
  0x2f, 0x4d, 0x61, 0x74, 0x4d, 0x75, 0x6c, 0x00, 0xc8, 0xfc, 0xff, 0xff,
  0xd2, 0xfd, 0xff, 0xff, 0x04, 0x00, 0x00, 0x00, 0x08, 0x00, 0x00, 0x00,
  0xff, 0xff, 0xff, 0xff, 0x70, 0x00, 0x00, 0x00, 0x00, 0x00, 0x0e, 0x00,
  0x18, 0x00, 0x08, 0x00, 0x07, 0x00, 0x0c, 0x00, 0x10, 0x00, 0x14, 0x00,
  0x0e, 0x00, 0x00, 0x00, 0x00, 0x00, 0x00, 0x02, 0x10, 0x00, 0x00, 0x00,
  0x06, 0x00, 0x00, 0x00, 0x10, 0x00, 0x00, 0x00, 0x2c, 0x00, 0x00, 0x00,
  0x01, 0x00, 0x00, 0x00, 0x02, 0x00, 0x00, 0x00, 0x18, 0x00, 0x00, 0x00,
  0x73, 0x65, 0x71, 0x75, 0x65, 0x6e, 0x74, 0x69, 0x61, 0x6c, 0x2f, 0x66,
  0x6c, 0x61, 0x74, 0x74, 0x65, 0x6e, 0x2f, 0x43, 0x6f, 0x6e, 0x73, 0x74,
  0x00, 0x00, 0x00, 0x00, 0x30, 0xfd, 0xff, 0xff, 0x3a, 0xfe, 0xff, 0xff,
  0x04, 0x00, 0x00, 0x00, 0x14, 0x00, 0x00, 0x00, 0x6c, 0xe9, 0x6f, 0xc0,
  0xfe, 0x7d, 0xe4, 0x3e, 0xd4, 0x31, 0x71, 0xbf, 0xcf, 0xed, 0x9f, 0xc0,
  0xf7, 0xed, 0x2d, 0x40, 0x26, 0xfe, 0xff, 0xff, 0x10, 0x00, 0x00, 0x00,
  0x05, 0x00, 0x00, 0x00, 0x10, 0x00, 0x00, 0x00, 0x44, 0x00, 0x00, 0x00,
  0x01, 0x00, 0x00, 0x00, 0x05, 0x00, 0x00, 0x00, 0x32, 0x00, 0x00, 0x00,
  0x73, 0x65, 0x71, 0x75, 0x65, 0x6e, 0x74, 0x69, 0x61, 0x6c, 0x2f, 0x64,
  0x65, 0x6e, 0x73, 0x65, 0x5f, 0x31, 0x2f, 0x42, 0x69, 0x61, 0x73, 0x41,
  0x64, 0x64, 0x2f, 0x52, 0x65, 0x61, 0x64, 0x56, 0x61, 0x72, 0x69, 0x61,
  0x62, 0x6c, 0x65, 0x4f, 0x70, 0x2f, 0x72, 0x65, 0x73, 0x6f, 0x75, 0x72,
  0x63, 0x65, 0x00, 0x00, 0xa8, 0xfd, 0xff, 0xff, 0xb2, 0xfe, 0xff, 0xff,
  0x04, 0x00, 0x00, 0x00, 0x40, 0x00, 0x00, 0x00, 0xbb, 0xd5, 0x08, 0x3f,
  0xae, 0xe1, 0x59, 0xbe, 0x50, 0x80, 0x03, 0xbf, 0x8d, 0xbb, 0x19, 0x40,
  0x01, 0x9e, 0x07, 0xc0, 0x3e, 0xdc, 0xea, 0xbf, 0x6e, 0xa5, 0x3c, 0xbf,
  0x1e, 0xae, 0xb6, 0x3f, 0x8a, 0x0b, 0x5d, 0x3f, 0x78, 0xbb, 0x8f, 0xbe,
  0x75, 0xe6, 0x03, 0x3f, 0xcc, 0x32, 0xa4, 0x3e, 0xda, 0xb1, 0x27, 0xbf,
  0xd7, 0x4e, 0x9b, 0xbe, 0x40, 0x33, 0x0f, 0xbf, 0x15, 0x38, 0x46, 0xbe,
  0xca, 0xfe, 0xff, 0xff, 0x10, 0x00, 0x00, 0x00, 0x04, 0x00, 0x00, 0x00,
  0x10, 0x00, 0x00, 0x00, 0x44, 0x00, 0x00, 0x00, 0x01, 0x00, 0x00, 0x00,
  0x10, 0x00, 0x00, 0x00, 0x30, 0x00, 0x00, 0x00, 0x73, 0x65, 0x71, 0x75,
  0x65, 0x6e, 0x74, 0x69, 0x61, 0x6c, 0x2f, 0x64, 0x65, 0x6e, 0x73, 0x65,
  0x2f, 0x42, 0x69, 0x61, 0x73, 0x41, 0x64, 0x64, 0x2f, 0x52, 0x65, 0x61,
  0x64, 0x56, 0x61, 0x72, 0x69, 0x61, 0x62, 0x6c, 0x65, 0x4f, 0x70, 0x2f,
  0x72, 0x65, 0x73, 0x6f, 0x75, 0x72, 0x63, 0x65, 0x00, 0x00, 0x00, 0x00,
  0x4c, 0xfe, 0xff, 0xff, 0x56, 0xff, 0xff, 0xff, 0x04, 0x00, 0x00, 0x00,
  0x40, 0x00, 0x00, 0x00, 0x34, 0x02, 0x5a, 0xbf, 0xd7, 0x7f, 0xad, 0x3e,
  0xad, 0x80, 0xd4, 0xbe, 0x15, 0x85, 0x8b, 0xbe, 0x05, 0x7c, 0xef, 0xbc,
  0xa5, 0x19, 0x6a, 0x3c, 0x5f, 0x6c, 0x96, 0xbf, 0x82, 0x74, 0x52, 0xbe,
  0xde, 0xec, 0x86, 0xbf, 0x21, 0x1b, 0x25, 0x3e, 0x4c, 0x92, 0x83, 0x3e,
  0x05, 0x9e, 0x8c, 0xbe, 0x72, 0x7c, 0x4b, 0xbf, 0xfd, 0x20, 0xd0, 0xbc,
  0x73, 0x30, 0x71, 0x40, 0x74, 0x4e, 0x7d, 0xbe, 0x6e, 0xff, 0xff, 0xff,
  0x10, 0x00, 0x00, 0x00, 0x03, 0x00, 0x00, 0x00, 0x10, 0x00, 0x00, 0x00,
  0x48, 0x00, 0x00, 0x00, 0x01, 0x00, 0x00, 0x00, 0x10, 0x00, 0x00, 0x00,
  0x33, 0x00, 0x00, 0x00, 0x73, 0x65, 0x71, 0x75, 0x65, 0x6e, 0x74, 0x69,
  0x61, 0x6c, 0x2f, 0x63, 0x6f, 0x6e, 0x76, 0x32, 0x64, 0x5f, 0x31, 0x2f,
  0x42, 0x69, 0x61, 0x73, 0x41, 0x64, 0x64, 0x2f, 0x52, 0x65, 0x61, 0x64,
  0x56, 0x61, 0x72, 0x69, 0x61, 0x62, 0x6c, 0x65, 0x4f, 0x70, 0x2f, 0x72,
  0x65, 0x73, 0x6f, 0x75, 0x72, 0x63, 0x65, 0x00, 0x04, 0x00, 0x06, 0x00,
  0x04, 0x00, 0x00, 0x00, 0x00, 0x00, 0x06, 0x00, 0x08, 0x00, 0x04, 0x00,
  0x06, 0x00, 0x00, 0x00, 0x04, 0x00, 0x00, 0x00, 0x20, 0x00, 0x00, 0x00,
  0x7f, 0x6f, 0x91, 0xbf, 0xe4, 0x5a, 0x3e, 0xbf, 0x3d, 0x49, 0x85, 0xbf,
  0xc1, 0x5a, 0x73, 0xbf, 0x45, 0xf9, 0xee, 0xbf, 0x5a, 0x6b, 0xca, 0x3e,
  0xdc, 0xa6, 0x2e, 0xbf, 0xca, 0xaa, 0xd0, 0xbf, 0x00, 0x00, 0x0e, 0x00,
  0x14, 0x00, 0x04, 0x00, 0x00, 0x00, 0x08, 0x00, 0x0c, 0x00, 0x10, 0x00,
  0x0e, 0x00, 0x00, 0x00, 0x10, 0x00, 0x00, 0x00, 0x02, 0x00, 0x00, 0x00,
  0x10, 0x00, 0x00, 0x00, 0x44, 0x00, 0x00, 0x00, 0x01, 0x00, 0x00, 0x00,
  0x08, 0x00, 0x00, 0x00, 0x31, 0x00, 0x00, 0x00, 0x73, 0x65, 0x71, 0x75,
  0x65, 0x6e, 0x74, 0x69, 0x61, 0x6c, 0x2f, 0x63, 0x6f, 0x6e, 0x76, 0x32,
  0x64, 0x2f, 0x42, 0x69, 0x61, 0x73, 0x41, 0x64, 0x64, 0x2f, 0x52, 0x65,
  0x61, 0x64, 0x56, 0x61, 0x72, 0x69, 0x61, 0x62, 0x6c, 0x65, 0x4f, 0x70,
  0x2f, 0x72, 0x65, 0x73, 0x6f, 0x75, 0x72, 0x63, 0x65, 0x00, 0x00, 0x00,
  0x90, 0xff, 0xff, 0xff, 0x14, 0x00, 0x18, 0x00, 0x04, 0x00, 0x00, 0x00,
  0x08, 0x00, 0x0c, 0x00, 0x10, 0x00, 0x00, 0x00, 0x00, 0x00, 0x14, 0x00,
  0x14, 0x00, 0x00, 0x00, 0x14, 0x00, 0x00, 0x00, 0x01, 0x00, 0x00, 0x00,
  0x20, 0x00, 0x00, 0x00, 0x44, 0x00, 0x00, 0x00, 0x2c, 0x00, 0x00, 0x00,
  0x04, 0x00, 0x00, 0x00, 0x01, 0x00, 0x00, 0x00, 0x40, 0x00, 0x00, 0x00,
  0x03, 0x00, 0x00, 0x00, 0x01, 0x00, 0x00, 0x00, 0x0c, 0x00, 0x00, 0x00,
  0x63, 0x6f, 0x6e, 0x76, 0x32, 0x64, 0x5f, 0x69, 0x6e, 0x70, 0x75, 0x74,
  0x00, 0x00, 0x00, 0x00, 0x04, 0x00, 0x00, 0x00, 0xff, 0xff, 0xff, 0xff,
  0x40, 0x00, 0x00, 0x00, 0x03, 0x00, 0x00, 0x00, 0x01, 0x00, 0x00, 0x00,
  0xfc, 0xff, 0xff, 0xff, 0x04, 0x00, 0x04, 0x00, 0x04, 0x00, 0x00, 0x00
};


unsigned int model_tflite_len = 13052;// Fill the int in `src/model.cc` here
